{
  "vocab": {
    "0": "\u0000",
    "1": "\u0001",
    "2": "\u0002",
    "3": "\u0003",
    "4": "\u0004",
    "5": "\u0005",
    "6": "\u0006",
    "7": "\u0007",
    "8": "\b",
    "9": "\t",
    "10": "\n",
    "11": "\u000b",
    "12": "\f",
    "13": "\r",
    "14": "\u000e",
    "15": "\u000f",
    "16": "\u0010",
    "17": "\u0011",
    "18": "\u0012",
    "19": "\u0013",
    "20": "\u0014",
    "21": "\u0015",
    "22": "\u0016",
    "23": "\u0017",
    "24": "\u0018",
    "25": "\u0019",
    "26": "\u001a",
    "27": "\u001b",
    "28": "\u001c",
    "29": "\u001d",
    "30": "\u001e",
    "31": "\u001f",
    "32": " ",
    "33": "!",
    "34": "\"",
    "35": "#",
    "36": "$",
    "37": "%",
    "38": "&",
    "39": "'",
    "40": "(",
    "41": ")",
    "42": "*",
    "43": "+",
    "44": ",",
    "45": "-",
    "46": ".",
    "47": "/",
    "48": "0",
    "49": "1",
    "50": "2",
    "51": "3",
    "52": "4",
    "53": "5",
    "54": "6",
    "55": "7",
    "56": "8",
    "57": "9",
    "58": ":",
    "59": ";",
    "60": "<",
    "61": "=",
    "62": ">",
    "63": "?",
    "64": "@",
    "65": "A",
    "66": "B",
    "67": "C",
    "68": "D",
    "69": "E",
    "70": "F",
    "71": "G",
    "72": "H",
    "73": "I",
    "74": "J",
    "75": "K",
    "76": "L",
    "77": "M",
    "78": "N",
    "79": "O",
    "80": "P",
    "81": "Q",
    "82": "R",
    "83": "S",
    "84": "T",
    "85": "U",
    "86": "V",
    "87": "W",
    "88": "X",
    "89": "Y",
    "90": "Z",
    "91": "[",
    "92": "\\",
    "93": "]",
    "94": "^",
    "95": "_",
    "96": "`",
    "97": "a",
    "98": "b",
    "99": "c",
    "100": "d",
    "101": "e",
    "102": "f",
    "103": "g",
    "104": "h",
    "105": "i",
    "106": "j",
    "107": "k",
    "108": "l",
    "109": "m",
    "110": "n",
    "111": "o",
    "112": "p",
    "113": "q",
    "114": "r",
    "115": "s",
    "116": "t",
    "117": "u",
    "118": "v",
    "119": "w",
    "120": "x",
    "121": "y",
    "122": "z",
    "123": "{",
    "124": "|",
    "125": "}",
    "126": "~",
    "127": "",
    "128": "",
    "129": "",
    "130": "",
    "131": "",
    "132": "",
    "133": "",
    "134": "",
    "135": "",
    "136": "",
    "137": "",
    "138": "",
    "139": "",
    "140": "",
    "141": "",
    "142": "",
    "143": "",
    "144": "",
    "145": "",
    "146": "",
    "147": "",
    "148": "",
    "149": "",
    "150": "",
    "151": "",
    "152": "",
    "153": "",
    "154": "",
    "155": "",
    "156": "",
    "157": "",
    "158": "",
    "159": "",
    "160": " ",
    "161": "¡",
    "162": "¢",
    "163": "£",
    "164": "¤",
    "165": "¥",
    "166": "¦",
    "167": "§",
    "168": "¨",
    "169": "©",
    "170": "ª",
    "171": "«",
    "172": "¬",
    "173": "­",
    "174": "®",
    "175": "¯",
    "176": "°",
    "177": "±",
    "178": "²",
    "179": "³",
    "180": "´",
    "181": "µ",
    "182": "¶",
    "183": "·",
    "184": "¸",
    "185": "¹",
    "186": "º",
    "187": "»",
    "188": "¼",
    "189": "½",
    "190": "¾",
    "191": "¿",
    "192": "À",
    "193": "Á",
    "194": "Â",
    "195": "Ã",
    "196": "Ä",
    "197": "Å",
    "198": "Æ",
    "199": "Ç",
    "200": "È",
    "201": "É",
    "202": "Ê",
    "203": "Ë",
    "204": "Ì",
    "205": "Í",
    "206": "Î",
    "207": "Ï",
    "208": "Ð",
    "209": "Ñ",
    "210": "Ò",
    "211": "Ó",
    "212": "Ô",
    "213": "Õ",
    "214": "Ö",
    "215": "×",
    "216": "Ø",
    "217": "Ù",
    "218": "Ú",
    "219": "Û",
    "220": "Ü",
    "221": "Ý",
    "222": "Þ",
    "223": "ß",
    "224": "à",
    "225": "á",
    "226": "â",
    "227": "ã",
    "228": "ä",
    "229": "å",
    "230": "æ",
    "231": "ç",
    "232": "è",
    "233": "é",
    "234": "ê",
    "235": "ë",
    "236": "ì",
    "237": "í",
    "238": "î",
    "239": "ï",
    "240": "ð",
    "241": "ñ",
    "242": "ò",
    "243": "ó",
    "244": "ô",
    "245": "õ",
    "246": "ö",
    "247": "÷",
    "248": "ø",
    "249": "ù",
    "250": "ú",
    "251": "û",
    "252": "ü",
    "253": "ý",
    "254": "þ",
    "255": "ÿ",
    "256": " t",
    "257": " a",
    "258": "he",
    "259": "in",
    "260": "re",
    "261": " the",
    "262": "on",
    "263": "er",
    "264": " s",
    "265": " w",
    "266": "at",
    "267": " o",
    "268": "en",
    "269": " c",
    "270": "it",
    "271": "is",
    "272": "an",
    "273": "or",
    "274": " b",
    "275": "es",
    "276": "ed",
    "277": " f",
    "278": "ing",
    "279": " p",
    "280": "ou",
    "281": " an",
    "282": "al",
    "283": " to",
    "284": "ar",
    "285": " m",
    "286": " in",
    "287": " of",
    "288": " h",
    "289": " d",
    "290": "as",
    "291": "â",
    "292": "ic",
    "293": " and",
    "294": " th",
    "295": "le",
    "296": "om",
    "297": "ion",
    "298": "ll",
    "299": "ent",
    "300": " n",
    "301": " l",
    "302": " re",
    "303": "st",
    "304": "ve",
    "305": " e",
    "306": "ly",
    "307": " be",
    "308": " g",
    "309": "ro",
    "310": "id",
    "311": "ac",
    "312": "ut",
    "313": "ot",
    "314": " T",
    "315": " I",
    "316": " that",
    "317": " on",
    "318": "ay",
    "319": " S",
    "320": " is",
    "321": "am",
    "322": "im",
    "323": "et",
    "324": "ad",
    "325": "ow",
    "326": "ig",
    "327": "se",
    "328": " for",
    "329": "â",
    "330": " A",
    "331": "ver",
    "332": "ld",
    "333": "ur",
    "334": "ct",
    "335": " C",
    "336": " u",
    "337": " st",
    "338": " y",
    "339": " it",
    "340": " he",
    "341": "ir",
    "342": "ation",
    "343": "ith",
    "344": " wh",
    "345": " M",
    "346": "ce",
    "347": "ter",
    "348": "ol",
    "349": " we",
    "350": "il",
    "351": " with",
    "352": " as",
    "353": " B",
    "354": "ch",
    "355": "ill",
    "356": "nd",
    "357": " was",
    "358": "ers",
    "359": " P",
    "360": " you",
    "361": "ke",
    "362": " â",
    "363": " con",
    "364": " de",
    "365": " r",
    "366": "if",
    "367": "her",
    "368": "ate",
    "369": " at",
    "370": "ag",
    "371": " W",
    "372": " ha",
    "373": " se",
    "374": " H",
    "375": "ore",
    "376": "ul",
    "377": " pro",
    "378": "pp",
    "379": "ment",
    "380": " 1",
    "381": " D",
    "382": " are",
    "383": "ri",
    "384": "est",
    "385": "us",
    "386": "ist",
    "387": " R",
    "388": " com",
    "389": "and",
    "390": "ain",
    "391": "op",
    "392": " 2",
    "393": " The",
    "394": "igh",
    "395": " (",
    "396": "th",
    "397": "rom",
    "398": "end",
    "399": "te",
    "400": "od",
    "401": " ne",
    "402": " F",
    "403": "um",
    "404": "un",
    "405": " ex",
    "406": "â",
    "407": "ab",
    "408": "res",
    "409": " N",
    "410": " not",
    "411": " v",
    "412": "ess",
    "413": " have",
    "414": "ould",
    "415": "ity",
    "416": " or",
    "417": " by",
    "418": "ort",
    "419": "os",
    "420": " G",
    "421": " from",
    "422": "ive",
    "423": "ant",
    "424": " al",
    "425": "'s",
    "426": " su",
    "427": "oc",
    "428": " L",
    "429": "art",
    "430": "el",
    "431": " sh",
    "432": " this",
    "433": "qu",
    "434": "em",
    "435": "ight",
    "436": "nt",
    "437": "ust",
    "438": "00",
    "439": "pe",
    "440": " le",
    "441": "ies",
    "442": " ch",
    "443": " sa",
    "444": " E",
    "445": "The",
    "446": " ab",
    "447": "ie",
    "448": "ack",
    "449": "out",
    "450": "all",
    "451": " â",
    "452": "red",
    "453": " J",
    "454": " has",
    "455": " pl",
    "456": "ally",
    "457": " go",
    "458": "ard",
    "459": "ap",
    "460": " his",
    "461": "ear",
    "462": "iv",
    "463": "ome",
    "464": "gh",
    "465": "ost",
    "466": "our",
    "467": " O",
    "468": " tr",
    "469": " j",
    "470": "ak",
    "471": "ast",
    "472": " wor",
    "473": "ud",
    "474": " they",
    "475": " do",
    "476": " but",
    "477": " said",
    "478": "ge",
    "479": " can",
    "480": "rou",
    "481": " will",
    "482": " whe",
    "483": " U",
    "484": " k",
    "485": "ok",
    "486": "ich",
    "487": " all",
    "488": " who",
    "489": "ide",
    "490": " \"",
    "491": "ame",
    "492": "ther",
    "493": "ans",
    "494": " out",
    "495": " their",
    "496": "ff",
    "497": "ial",
    "498": "ong",
    "499": "pl",
    "500": "ice",
    "501": "ure",
    "502": " more",
    "503": "age",
    "504": "ions",
    "505": "ous",
    "506": "ike",
    "507": "one",
    "508": "act",
    "509": " up",
    "510": " me",
    "511": "ine",
    "512": " ad",
    "513": "ep",
    "514": " about",
    "515": "ra",
    "516": "ime",
    "517": "ated",
    "518": " were",
    "519": " one",
    "520": "pt",
    "521": "ber",
    "522": "og",
    "523": " us",
    "524": "ect",
    "525": " so",
    "526": " had",
    "527": "ub",
    "528": "are",
    "529": "ia",
    "530": "cc",
    "531": "ue",
    "532": " 20",
    "533": " K",
    "534": " cl",
    "535": " would",
    "536": " im",
    "537": "ind",
    "538": "iz",
    "539": "xt",
    "540": " ag",
    "541": " which",
    "542": "ake",
    "543": "very",
    "544": " te",
    "545": " un",
    "546": " off",
    "547": " been",
    "548": " comp",
    "549": " int",
    "550": "so",
    "551": "au",
    "552": " year",
    "553": "per",
    "554": " Th",
    "555": " en",
    "556": "ign",
    "557": " cont",
    "558": "ip",
    "559": "ary",
    "560": "ace",
    "561": "ew",
    "562": " like",
    "563": "ook",
    "564": "ven",
    "565": "ays",
    "566": " man",
    "567": " inc",
    "568": " pe",
    "569": "ry",
    "570": "ose",
    "571": "able",
    "572": " In",
    "573": "ite",
    "574": " res",
    "575": " per",
    "576": "ord",
    "577": "ass",
    "578": " sp",
    "579": "mer",
    "580": " other",
    "581": " some",
    "582": "ile",
    "583": "ire",
    "584": " 201",
    "585": "ib",
    "586": "ople",
    "587": "ence",
    "588": " St",
    "589": "ical",
    "590": " new",
    "591": " there",
    "592": " over",
    "593": "ations",
    "594": "ks",
    "595": " dis",
    "596": "ult",
    "597": "ress",
    "598": " also",
    "599": "own",
    "600": " than",
    "601": " ar",
    "602": "ough",
    "603": " bec",
    "604": " them",
    "605": "ance",
    "606": "ail",
    "607": "port",
    "608": "ree",
    "609": " when",
    "610": " app",
    "611": "ond",
    "612": "ru",
    "613": " your",
    "614": " part",
    "615": "ount",
    "616": " people",
    "617": " what",
    "618": " qu",
    "619": "int",
    "620": "fter",
    "621": "orm",
    "622": " sc",
    "623": "av",
    "624": " Ch",
    "625": " Y",
    "626": " just",
    "627": "ase",
    "628": " any",
    "629": " kn",
    "630": " 3",
    "631": " its",
    "632": "of",
    "633": " time",
    "634": "ach",
    "635": " her",
    "636": " V",
    "637": " It",
    "638": "ction",
    "639": "reat",
    "640": " if",
    "641": " my",
    "642": "ens",
    "643": " rec",
    "644": "ick",
    "645": " get",
    "646": "vel",
    "647": ".â",
    "648": " into",
    "649": "ound",
    "650": "irst",
    "651": " tw",
    "652": "ian",
    "653": " no",
    "654": " work",
    "655": "du",
    "656": " -",
    "657": "ere",
    "658": "ings",
    "659": "ory",
    "660": "lic",
    "661": " play",
    "662": " our",
    "663": "ition",
    "664": "ident",
    "665": "ors",
    "666": " pre",
    "667": "ob",
    "668": "ang",
    "669": "ove",
    "670": "ink",
    "671": "ade",
    "672": "text",
    "673": "ish",
    "674": "ause",
    "675": "wn",
    "676": "ark",
    "677": "ates",
    "678": "amp",
    "679": " she",
    "680": " ro",
    "681": ",â",
    "682": " co",
    "683": "vers",
    "684": " pol",
    "685": " first",
    "686": " after",
    "687": " how",
    "688": " could",
    "689": "ne",
    "690": "ious",
    "691": "nder",
    "692": " acc",
    "693": " He",
    "694": "ild",
    "695": "'t",
    "696": " 19",
    "697": " him",
    "698": " po",
    "699": "|>",
    "700": "<|",
    "701": "endof",
    "702": "endoftext",
    "703": "aw",
    "704": "ons",
    "705": "hed",
    "706": " fe",
    "707": " only",
    "708": "rit",
    "709": " pr",
    "710": "ict",
    "711": " two",
    "712": "hing",
    "713": "â",
    "714": "ov",
    "715": "we",
    "716": " ser",
    "717": " spe",
    "718": "form",
    "719": " comm",
    "720": ".\"",
    "721": " bl",
    "722": " bet",
    "723": " act",
    "724": "ning",
    "725": " dec",
    "726": " back",
    "727": "ces",
    "728": " most",
    "729": "oy",
    "730": "ood",
    "731": " 4",
    "732": " am",
    "733": " did",
    "734": "ck",
    "735": " again",
    "736": "iff",
    "737": "ft",
    "738": "rough",
    "739": "round",
    "740": "ater",
    "741": " under",
    "742": " want",
    "743": "day",
    "744": "ual",
    "745": " â",
    "746": "ise",
    "747": " â",
    "748": " years",
    "749": "sel",
    "750": "ull",
    "751": "..",
    "752": "ents",
    "753": " des",
    "754": " because",
    "755": " now",
    "756": ",\"",
    "757": "tern",
    "758": " even",
    "759": " cons",
    "760": "lud",
    "761": " know",
    "762": "ublic",
    "763": " att",
    "764": "iss",
    "765": " inv",
    "766": " need",
    "767": "man",
    "768": "ting",
    "769": "ec",
    "770": "old",
    "771": " sec",
    "772": " see",
    "773": " add",
    "774": " ind",
    "775": " We",
    "776": "ments",
    "777": " every",
    "778": "ced",
    "779": " $",
    "780": "fore",
    "781": "uch",
    "782": " 5",
    "783": "urn",
    "784": " make",
    "785": " supp",
    "786": " Un",
    "787": " em",
    "788": "pect",
    "789": " these",
    "790": "oll",
    "791": "ject",
    "792": "ock",
    "793": "In",
    "794": " where",
    "795": " look",
    "796": "ational",
    "797": "ump",
    "798": "ason",
    "799": " bu",
    "800": "vern",
    "801": "iew",
    "802": " don",
    "803": " way",
    "804": " And",
    "805": "ily",
    "806": " being",
    "807": "Th",
    "808": " right",
    "809": "ng",
    "810": " ev",
    "811": "les",
    "812": " may",
    "813": "ating",
    "814": "oss",
    "815": " Tr",
    "816": " diff",
    "817": " many",
    "818": " rel",
    "819": " rem",
    "820": " then",
    "821": "row",
    "822": "lect",
    "823": " def",
    "824": "ased",
    "825": " call",
    "826": "ath",
    "827": " think",
    "828": "ied",
    "829": " But",
    "830": "meric",
    "831": "aking",
    "832": " [",
    "833": "ited",
    "834": " last",
    "835": " includ",
    "836": " imp",
    "837": " say",
    "838": " through",
    "839": " should",
    "840": " those",
    "841": "ower",
    "842": "ific",
    "843": "other",
    "844": ").",
    "845": "uring",
    "846": " reg",
    "847": " fl",
    "848": "ont",
    "849": " very",
    "850": " pres",
    "851": "rib",
    "852": " sy",
    "853": " much",
    "854": "arg",
    "855": "ty",
    "856": "ities",
    "857": " show",
    "858": " state",
    "859": " br",
    "860": "ss",
    "861": "hen",
    "862": " This",
    "863": " bel",
    "864": "ved",
    "865": " ph",
    "866": "tle",
    "867": " well",
    "868": "ative",
    "869": "ics",
    "870": "ange",
    "871": " Wh",
    "872": " end",
    "873": " does",
    "874": "und",
    "875": " own",
    "876": " down",
    "877": " ass",
    "878": "als",
    "879": " 200",
    "880": "com",
    "881": "ters",
    "882": "arly",
    "883": "oth",
    "884": " mon",
    "885": " count",
    "886": " Americ",
    "887": " use",
    "888": "ward",
    "889": "ince",
    "890": "omet",
    "891": " before",
    "892": " long",
    "893": "ts",
    "894": " team",
    "895": "up",
    "896": " start",
    "897": " New",
    "898": "gr",
    "899": "ues",
    "900": " govern",
    "901": " report",
    "902": " ke",
    "903": "oun",
    "904": "ible",
    "905": "olog",
    "906": "ener",
    "907": "ren",
    "908": "ife",
    "909": " made",
    "910": " fin",
    "911": "ble",
    "912": "--",
    "913": "ix",
    "914": " sm",
    "915": "rest",
    "916": " world",
    "917": " such",
    "918": " game",
    "919": "erson",
    "920": " going",
    "921": "),",
    "922": " sub",
    "923": "000",
    "924": " good",
    "925": "ful",
    "926": " hel",
    "927": "ism",
    "928": "ek",
    "929": " ac",
    "930": " against",
    "931": " 6",
    "932": "It",
    "933": "ility",
    "934": "ert",
    "935": "ork",
    "936": "ually",
    "937": " gu",
    "938": " point",
    "939": " sur",
    "940": " stud",
    "941": " eff",
    "942": "ys",
    "943": "gan",
    "944": " ent",
    "945": "its",
    "946": "ists",
    "947": "ier",
    "948": " still",
    "949": " set",
    "950": "ars",
    "951": ".<|",
    "952": "ax",
    "953": "ween",
    "954": " lead",
    "955": " help",
    "956": "imes",
    "957": "roup",
    "958": " says",
    "959": " gr",
    "960": "ving",
    "961": " col",
    "962": " min",
    "963": "stem",
    "964": " ob",
    "965": "â",
    "966": " while",
    "967": "ms",
    "968": "ell",
    "969": "ef",
    "970": "alk",
    "971": "io",
    "972": "illion",
    "973": " produ",
    "974": "self",
    "975": "ank",
    "976": " inte",
    "977": " sim",
    "978": " though",
    "979": " between",
    "980": "cy",
    "981": " take",
    "982": " same",
    "983": "cess",
    "984": "ah",
    "985": " differe",
    "986": "ollow",
    "987": " num",
    "988": " str",
    "989": "ures",
    "990": "ames",
    "991": " conf",
    "992": " high",
    "993": " inter",
    "994": "arch",
    "995": "ever",
    "996": " cr",
    "997": " op",
    "998": "air",
    "999": " inst",
    "1000": "uss",
    "1001": " sign",
    "1002": "atch",
    "1003": " offic",
    "1004": "ool",
    "1005": "led",
    "1006": " Re",
    "1007": " law",
    "1008": "hip",
    "1009": " disc",
    "1010": "cent",
    "1011": "gg",
    "1012": "ner",
    "1013": "way",
    "1014": " prov",
    "1015": " ins",
    "1016": " ret",
    "1017": "read",
    "1018": "hes",
    "1019": "ten",
    "1020": "land",
    "1021": "any",
    "1022": "velop",
    "1023": " government",
    "1024": " somet",
    "1025": " ed",
    "1026": "ution",
    "1027": " med",
    "1028": "We",
    "1029": " three",
    "1030": " ref",
    "1031": " ter",
    "1032": " trans",
    "1033": " found",
    "1034": "ouse",
    "1035": " run",
    "1036": " around",
    "1037": " here",
    "1038": " 10",
    "1039": " real",
    "1040": " Al",
    "1041": " used",
    "1042": "oot",
    "1043": " mem",
    "1044": "ather",
    "1045": " You",
    "1046": "ave",
    "1047": "ives",
    "1048": "ted",
    "1049": "az",
    "1050": "ale",
    "1051": "con",
    "1052": "ph",
    "1053": " exp",
    "1054": " system",
    "1055": "alth",
    "1056": "ets",
    "1057": " sl",
    "1058": "ci",
    "1059": " group",
    "1060": " Ar",
    "1061": "cept",
    "1062": " 7",
    "1063": " really",
    "1064": " Le",
    "1065": "ves",
    "1066": " support",
    "1067": " cour",
    "1068": " Trump",
    "1069": " hand",
    "1070": "ense",
    "1071": "ins",
    "1072": " great",
    "1073": " wom",
    "1074": " mod",
    "1075": " car",
    "1076": " public",
    "1077": " fam",
    "1078": "ying",
    "1079": " spec",
    "1080": " ext",
    "1081": "ton",
    "1082": " cap",
    "1083": " cur",
    "1084": "ern",
    "1085": " read",
    "1086": " They",
    "1087": " fact",
    "1088": " rep",
    "1089": "ision",
    "1090": " Cl",
    "1091": " find",
    "1092": " day",
    "1093": "oh",
    "1094": " exper",
    "1095": " fr",
    "1096": " happ",
    "1097": "ular",
    "1098": "aj",
    "1099": " both",
    "1100": " month",
    "1101": "irect",
    "1102": " lit",
    "1103": " during",
    "1104": " Com",
    "1105": " det",
    "1106": "ines",
    "1107": "pr",
    "1108": "ices",
    "1109": " Is",
    "1110": " Sh",
    "1111": " told",
    "1112": " develop",
    "1113": "uth",
    "1114": " big",
    "1115": "the",
    "1116": " follow",
    "1117": " As",
    "1118": " iss",
    "1119": " person",
    "1120": "ivers",
    "1121": "min",
    "1122": " since",
    "1123": " cre",
    "1124": " cent",
    "1125": "ording",
    "1126": " war",
    "1127": "akes",
    "1128": " 0",
    "1129": " week",
    "1130": "ared",
    "1131": "ric",
    "1132": "ages",
    "1133": " 8",
    "1134": " few",
    "1135": "ically",
    "1136": " polit",
    "1137": " belie",
    "1138": "med",
    "1139": ".[",
    "1140": " leg",
    "1141": " gener",
    "1142": "ex",
    "1143": "ash",
    "1144": "anc",
    "1145": " expl",
    "1146": " lot",
    "1147": "bers",
    "1148": "ered",
    "1149": " contin",
    "1150": "ention",
    "1151": "ness",
    "1152": "get",
    "1153": "iet",
    "1154": " too",
    "1155": "der",
    "1156": " put",
    "1157": " soc",
    "1158": "rent",
    "1159": "orn",
    "1160": " If",
    "1161": "Wh",
    "1162": " requ",
    "1163": " opp",
    "1164": " another",
    "1165": " 9",
    "1166": " resp",
    "1167": " something",
    "1168": "ized",
    "1169": " different",
    "1170": "chool",
    "1171": " cle",
    "1172": " inf",
    "1173": " pass",
    "1174": " loc",
    "1175": " second",
    "1176": " De",
    "1177": "ata",
    "1178": " life",
    "1179": " plan",
    "1180": "view",
    "1181": " met",
    "1182": " invest",
    "1183": "ody",
    "1184": " char",
    "1185": " far",
    "1186": " fil",
    "1187": "ross",
    "1188": " head",
    "1189": " child",
    "1190": "iness",
    "1191": "thing",
    "1192": "ience",
    "1193": " che",
    "1194": " commun",
    "1195": "ik",
    "1196": " rele",
    "1197": " power",
    "1198": " never",
    "1199": " things",
    "1200": " bus",
    "1201": "arl",
    "1202": " poss",
    "1203": "ize",
    "1204": " camp",
    "1205": " bo",
    "1206": "ield",
    "1207": "uc",
    "1208": " dep",
    "1209": "ute",
    "1210": "ants",
    "1211": " might",
    "1212": " adv",
    "1213": "ient",
    "1214": " ask",
    "1215": " got",
    "1216": " cor",
    "1217": " each",
    "1218": " quest",
    "1219": " â",
    "1220": " vot",
    "1221": "This",
    "1222": " art",
    "1223": " best",
    "1224": " For",
    "1225": " next",
    "1226": " mark",
    "1227": "cl",
    "1228": " Fr",
    "1229": " dem",
    "1230": " allow",
    "1231": " come",
    "1232": "20",
    "1233": " '",
    "1234": " That",
    "1235": "ret",
    "1236": " seem",
    "1237": "rat",
    "1238": " feel",
    "1239": " An",
    "1240": " percent",
    "1241": "nce",
    "1242": "tem",
    "1243": "ital",
    "1244": "son",
    "1245": " incre",
    "1246": " post",
    "1247": "ple",
    "1248": "ug",
    "1249": " home",
    "1250": " av",
    "1251": " dist",
    "1252": " open",
    "1253": "erv",
    "1254": " .",
    "1255": " care",
    "1256": "gram",
    "1257": "ired",
    "1258": " US",
    "1259": "less",
    "1260": " Rep",
    "1261": " contro",
    "1262": " pri",
    "1263": " hard",
    "1264": "chn",
    "1265": "osed",
    "1266": " result",
    "1267": " Pro",
    "1268": " season",
    "1269": "ral",
    "1270": " direct",
    "1271": "__",
    "1272": " Bl",
    "1273": "ately",
    "1274": " hum",
    "1275": " place",
    "1276": "gy",
    "1277": " number",
    "1278": " build",
    "1279": " without",
    "1280": " four",
    "1281": " inform",
    "1282": " including",
    "1283": " top",
    "1284": "co",
    "1285": "ama",
    "1286": " million",
    "1287": "conom",
    "1288": " import",
    "1289": " comple",
    "1290": " ide",
    "1291": "riend",
    "1292": " recent",
    "1293": "aim",
    "1294": "line",
    "1295": "ably",
    "1296": " proble",
    "1297": " tri",
    "1298": " let",
    "1299": " country",
    "1300": "ways",
    "1301": "ished",
    "1302": "But",
    "1303": " stand",
    "1304": " el",
    "1305": "arn",
    "1306": " better",
    "1307": "ained",
    "1308": " gl",
    "1309": " interest",
    "1310": "ration",
    "1311": "ead",
    "1312": " less",
    "1313": "oney",
    "1314": "ract",
    "1315": " mov",
    "1316": "ling",
    "1317": " Ind",
    "1318": " partic",
    "1319": " attack",
    "1320": " little",
    "1321": " bro",
    "1322": "app",
    "1323": " appro",
    "1324": " beh",
    "1325": " mil",
    "1326": " called",
    "1327": " didn",
    "1328": " turn",
    "1329": " rest",
    "1330": " dr",
    "1331": " case",
    "1332": "ised",
    "1333": "ains",
    "1334": "ode",
    "1335": "tt",
    "1336": " pop",
    "1337": " move",
    "1338": "rem",
    "1339": " effect",
    "1340": " pay",
    "1341": "ajor",
    "1342": " Z",
    "1343": " full",
    "1344": "ina",
    "1345": " keep",
    "1346": " left",
    "1347": " prev",
    "1348": " ann",
    "1349": " serv",
    "1350": " news",
    "1351": " conc",
    "1352": "10",
    "1353": "ency",
    "1354": " program",
    "1355": "uro",
    "1356": "ann",
    "1357": " There",
    "1358": "ering",
    "1359": "ature",
    "1360": " --",
    "1361": " 12",
    "1362": " test",
    "1363": "inal",
    "1364": " main",
    "1365": "be",
    "1366": " writ",
    "1367": " using",
    "1368": "ology",
    "1369": "rap",
    "1370": " win",
    "1371": "He",
    "1372": " form",
    "1373": " pos",
    "1374": " val",
    "1375": " American",
    "1376": "leg",
    "1377": " level",
    "1378": " sit",
    "1379": " fun",
    "1380": " school",
    "1381": " econom",
    "1382": "ertain",
    "1383": "iving",
    "1384": " police",
    "1385": "arge",
    "1386": " women",
    "1387": "ined",
    "1388": "ploy",
    "1389": "iver",
    "1390": " =",
    "1391": "'re",
    "1392": " list",
    "1393": " book",
    "1394": " small",
    "1395": " eas",
    "1396": "uck",
    "1397": "ready",
    "1398": " data",
    "1399": "mit",
    "1400": " United",
    "1401": "to",
    "1402": " Ph",
    "1403": "ohn",
    "1404": "used",
    "1405": " hist",
    "1406": "ron",
    "1407": " Q",
    "1408": " rece",
    "1409": " current",
    "1410": " health",
    "1411": "ird",
    "1412": "ided",
    "1413": "orth",
    "1414": " process",
    "1415": "//",
    "1416": " bre",
    "1417": " change",
    "1418": " company",
    "1419": " mat",
    "1420": " president",
    "1421": " 18",
    "1422": " techn",
    "1423": "ger",
    "1424": "reen",
    "1425": "ruct",
    "1426": " business",
    "1427": " always",
    "1428": " why",
    "1429": "wit",
    "1430": " sol",
    "1431": " So",
    "1432": "ians",
    "1433": " thing",
    "1434": " How",
    "1435": " already",
    "1436": "aining",
    "1437": " able",
    "1438": " prom",
    "1439": " Be",
    "1440": "stand",
    "1441": " later",
    "1442": "ards",
    "1443": " project",
    "1444": " rese",
    "1445": " organ",
    "1446": " chang",
    "1447": "aign",
    "1448": " prof",
    "1449": " unt",
    "1450": "ases",
    "1451": " story",
    "1452": " dri",
    "1453": " job",
    "1454": "aff",
    "1455": " expect",
    "1456": " Ob",
    "1457": " class",
    "1458": " major",
    "1459": "outh",
    "1460": " away",
    "1461": " claim",
    "1462": "urs",
    "1463": " She",
    "1464": " past",
    "1465": " official",
    "1466": " money",
    "1467": "ample",
    "1468": "ural",
    "1469": " free",
    "1470": " ty",
    "1471": " vis",
    "1472": " talk",
    "1473": "ured",
    "1474": " information",
    "1475": "iven",
    "1476": "rist",
    "1477": "ury",
    "1478": " pat",
    "1479": " cost",
    "1480": "here",
    "1481": " ele",
    "1482": " design",
    "1483": "iversity",
    "1484": "side",
    "1485": " old",
    "1486": " view",
    "1487": "acy",
    "1488": " kill",
    "1489": " city",
    "1490": " stre",
    "1491": " doesn",
    "1492": " Se",
    "1493": " important",
    "1494": " least",
    "1495": "ending",
    "1496": " mar",
    "1497": "sc",
    "1498": "ley",
    "1499": " aff",
    "1500": " happen",
    "1501": " came",
    "1502": " men",
    "1503": " est",
    "1504": "50",
    "1505": " campaign",
    "1506": " Ad",
    "1507": " days",
    "1508": "uthor",
    "1509": " oper",
    "1510": "ption",
    "1511": " must",
    "1512": "ides",
    "1513": "alf",
    "1514": "urity",
    "1515": "ccess",
    "1516": "resident",
    "1517": " grow",
    "1518": " sk",
    "1519": "ney",
    "1520": " Mar",
    "1521": " family",
    "1522": " hop",
    "1523": " friend",
    "1524": "eral",
    "1525": " tax",
    "1526": "els",
    "1527": " record",
    "1528": " making",
    "1529": " tell",
    "1530": " enough",
    "1531": "ission",
    "1532": "ior",
    "1533": " var",
    "1534": " kind",
    "1535": " Sp",
    "1536": " const",
    "1537": "ider",
    "1538": " elect",
    "1539": "ising",
    "1540": " vide",
    "1541": "ality",
    "1542": " Go",
    "1543": " large",
    "1544": "pped",
    "1545": "oad",
    "1546": "bs",
    "1547": "ush",
    "1548": "arent",
    "1549": " polic",
    "1550": " took",
    "1551": " name",
    "1552": "...",
    "1553": " deal",
    "1554": "ified",
    "1555": "ued",
    "1556": " John",
    "1557": "augh",
    "1558": " political",
    "1559": " Republic",
    "1560": " es",
    "1561": "ox",
    "1562": " air",
    "1563": "ror",
    "1564": "ived",
    "1565": " edit",
    "1566": "ane",
    "1567": "19",
    "1568": "work",
    "1569": " until",
    "1570": "As",
    "1571": " del",
    "1572": "enn",
    "1573": "by",
    "1574": " ve",
    "1575": "ocrat",
    "1576": " games",
    "1577": "ional",
    "1578": " working",
    "1579": "If",
    "1580": " line",
    "1581": "â¦",
    "1582": "iol",
    "1583": " become",
    "1584": " Can",
    "1585": " according",
    "1586": " deb",
    "1587": "ries",
    "1588": " mean",
    "1589": "ER",
    "1590": "ott",
    "1591": "ister",
    "1592": " former",
    "1593": " ever",
    "1594": "ony",
    "1595": " Sc",
    "1596": " Dem",
    "1597": " actually",
    "1598": " return",
    "1599": "ator",
    "1600": " bas",
    "1601": " often",
    "1602": " won",
    "1603": "sh",
    "1604": "ison",
    "1605": "iqu",
    "1606": "year",
    "1607": " intern",
    "1608": " human",
    "1609": " Pl",
    "1610": " times",
    "1611": "ization",
    "1612": " Mc",
    "1613": " fund",
    "1614": " give",
    "1615": "most",
    "1616": "ware",
    "1617": " fore",
    "1618": " players",
    "1619": "eng",
    "1620": " wr",
    "1621": "St",
    "1622": "aring",
    "1623": " All",
    "1624": " sing",
    "1625": "icle",
    "1626": " sever",
    "1627": "wh",
    "1628": "rop",
    "1629": " order",
    "1630": "ither",
    "1631": " Russ",
    "1632": "gin",
    "1633": " bit",
    "1634": " word",
    "1635": " media",
    "1636": "ague",
    "1637": "ium",
    "1638": " seen",
    "1639": " prote",
    "1640": "ball",
    "1641": "for",
    "1642": "aps",
    "1643": " doing",
    "1644": "uture",
    "1645": " charac",
    "1646": " May",
    "1647": "----",
    "1648": "There",
    "1649": " la",
    "1650": " dev",
    "1651": " At",
    "1652": "raft",
    "1653": " social",
    "1654": " appear",
    "1655": " market",
    "1656": " night",
    "1657": " young",
    "1658": " children",
    "1659": " crit",
    "1660": " ,",
    "1661": " control",
    "1662": " having",
    "1663": " ra",
    "1664": " President",
    "1665": " early",
    "1666": " fac",
    "1667": "ched",
    "1668": " Con",
    "1669": "idd",
    "1670": " sure",
    "1671": " went",
    "1672": " perform",
    "1673": " five",
    "1674": "ories",
    "1675": " several",
    "1676": "oint",
    "1677": " today",
    "1678": "iam",
    "1679": "aken",
    "1680": " York",
    "1681": " Or",
    "1682": "iber",
    "1683": "iously",
    "1684": " Sy",
    "1685": " press",
    "1686": " event",
    "1687": "br",
    "1688": "ands",
    "1689": " 15",
    "1690": " arg",
    "1691": " Euro",
    "1692": " avail",
    "1693": " pot",
    "1694": " States",
    "1695": "11",
    "1696": " occ",
    "1697": " success",
    "1698": "une",
    "1699": " prop",
    "1700": "vert",
    "1701": " whether",
    "1702": " example",
    "1703": " 199",
    "1704": " Ste",
    "1705": "artment",
    "1706": "idence",
    "1707": "ee",
    "1708": " along",
    "1709": " question",
    "1710": "ats",
    "1711": " likely",
    "1712": "uff",
    "1713": " No",
    "1714": " milit",
    "1715": "inc",
    "1716": " equ",
    "1717": " invol",
    "1718": " months",
    "1719": " water",
    "1720": " members",
    "1721": "mber",
    "1722": "ots",
    "1723": "let",
    "1724": " ben",
    "1725": " sex",
    "1726": " short",
    "1727": " fight",
    "1728": " within",
    "1729": " vers",
    "1730": " fail",
    "1731": " done",
    "1732": " certain",
    "1733": "ster",
    "1734": " among",
    "1735": "And",
    "1736": " hour",
    "1737": " meet",
    "1738": " once",
    "1739": "ivid",
    "1740": "ially",
    "1741": "back",
    "1742": "ubl",
    "1743": " understand",
    "1744": " ant",
    "1745": " Col",
    "1746": "ortun",
    "1747": " thought",
    "1748": " side",
    "1749": " desc",
    "1750": "iting",
    "1751": "urch",
    "1752": " means",
    "1753": "nect",
    "1754": "lf",
    "1755": " priv",
    "1756": " future",
    "1757": " across",
    "1758": " eng",
    "1759": " viol",
    "1760": " local",
    "1761": "ential",
    "1762": " course",
    "1763": "ggest",
    "1764": " product",
    "1765": " 11",
    "1766": " #",
    "1767": " investig",
    "1768": "rew",
    "1769": "ones",
    "1770": " hold",
    "1771": "ulation",
    "1772": "ler",
    "1773": "verage",
    "1774": "ended",
    "1775": " cho",
    "1776": " Obama",
    "1777": " known",
    "1778": " Mr",
    "1779": " reason",
    "1780": "gress",
    "1781": "ourn",
    "1782": "imate",
    "1783": " Br",
    "1784": " &",
    "1785": "my",
    "1786": " On",
    "1787": " activ",
    "1788": "book",
    "1789": " possible",
    "1790": " State",
    "1791": " suggest",
    "1792": "itive",
    "1793": " available",
    "1794": " problem",
    "1795": "ã",
    "1796": "oci",
    "1797": " When",
    "1798": " non",
    "1799": "aged",
    "1800": " community",
    "1801": " yet",
    "1802": " asked",
    "1803": " light",
    "1804": " House",
    "1805": " video",
    "1806": " 2016",
    "1807": " orig",
    "1808": " makes",
    "1809": " author",
    "1810": "ald",
    "1811": "arm",
    "1812": " creat",
    "1813": " getting",
    "1814": " cut",
    "1815": "ensive",
    "1816": "not",
    "1817": " believe",
    "1818": " cond",
    "1819": "ederal",
    "1820": " prob",
    "1821": " given",
    "1822": " Europe",
    "1823": " 30",
    "1824": " reported",
    "1825": "urther",
    "1826": " others",
    "1827": "ober",
    "1828": "itions",
    "1829": "iety",
    "1830": " Christ",
    "1831": " net",
    "1832": " land",
    "1833": " ca",
    "1834": "ene",
    "1835": " Cent",
    "1836": "orld",
    "1837": "You",
    "1838": "ashing",
    "1839": " Fl",
    "1840": "por",
    "1841": " mus",
    "1842": " i",
    "1843": "uly",
    "1844": " announ",
    "1845": " Te",
    "1846": " strong",
    "1847": " Co",
    "1848": " ]",
    "1849": " death",
    "1850": "ances",
    "1851": " lim",
    "1852": " national",
    "1853": "iron",
    "1854": "12",
    "1855": " Democrat",
    "1856": " started",
    "1857": " 2014",
    "1858": " ago",
    "1859": " X",
    "1860": " ident",
    "1861": " sent",
    "1862": "aster",
    "1863": "ored",
    "1864": " half",
    "1865": " par",
    "1866": "'ve",
    "1867": " employ",
    "1868": " 2015",
    "1869": " issue",
    "1870": " mom",
    "1871": " Am",
    "1872": " hig",
    "1873": " close",
    "1874": " trying",
    "1875": "30",
    "1876": "hers",
    "1877": " access",
    "1878": " following",
    "1879": " University",
    "1880": " love",
    "1881": " history",
    "1882": " party",
    "1883": "AT",
    "1884": "orts",
    "1885": "ilar",
    "1886": " based",
    "1887": " saf",
    "1888": " comes",
    "1889": " Sen",
    "1890": " bat",
    "1891": " America",
    "1892": ".,",
    "1893": "For",
    "1894": " Min",
    "1895": " sour",
    "1896": "ination",
    "1897": "selves",
    "1898": " almost",
    "1899": " foc",
    "1900": "â",
    "1901": " series",
    "1902": " indust",
    "1903": " low",
    "1904": "resent",
    "1905": "ividual",
    "1906": "ument",
    "1907": " prot",
    "1908": " toget",
    "1909": " together",
    "1910": " idea",
    "1911": "use",
    "1912": "ability",
    "1913": "itional",
    "1914": " looking",
    "1915": " 16",
    "1916": " Â",
    "1917": " account",
    "1918": "ograp",
    "1919": " six",
    "1920": " One",
    "1921": "utes",
    "1922": " commit",
    "1923": "though",
    "1924": "ream",
    "1925": " added",
    "1926": "ales",
    "1927": " experience",
    "1928": "rict",
    "1929": " isn",
    "1930": " impro",
    "1931": " anything",
    "1932": "ails",
    "1933": "erence",
    "1934": "ief",
    "1935": "ote",
    "1936": " saying",
    "1937": "ring",
    "1938": "ustom",
    "1939": " clear",
    "1940": "ev",
    "1941": "ien",
    "1942": "witter",
    "1943": "aper",
    "1944": " mor",
    "1945": "IN",
    "1946": " er",
    "1947": " trad",
    "1948": "reed",
    "1949": "unch",
    "1950": "pro",
    "1951": " Af",
    "1952": "ris",
    "1953": "irc",
    "1954": "cer",
    "1955": " fav",
    "1956": "ged",
    "1957": " hit",
    "1958": "sy",
    "1959": "tempt",
    "1960": "eb",
    "1961": " anal",
    "1962": "aid",
    "1963": " area",
    "1964": " rul",
    "1965": " pract",
    "1966": "minist",
    "1967": "15",
    "1968": " complete",
    "1969": " /",
    "1970": " 14",
    "1971": "rown",
    "1972": " miss",
    "1973": " phot",
    "1974": " What",
    "1975": " face",
    "1976": "'m",
    "1977": " live",
    "1978": " present",
    "1979": " Brit",
    "1980": " near",
    "1981": " court",
    "1982": "af",
    "1983": " Ex",
    "1984": "play",
    "1985": "raw",
    "1986": " Eng",
    "1987": " individual",
    "1988": " compet",
    "1989": " Pr",
    "1990": " vict",
    "1991": " film",
    "1992": " bill",
    "1993": "wards",
    "1994": " cult",
    "1995": "ows",
    "1996": " Canad",
    "1997": " single",
    "1998": " ris",
    "1999": " taken",
    "2000": "osp",
    "2001": "rug",
    "2002": " threat",
    "2003": " black",
    "2004": " Har",
    "2005": " mind",
    "2006": "go",
    "2007": " bad",
    "2008": " try",
    "2009": "ai",
    "2010": " rather",
    "2011": " entire",
    "2012": " Pol",
    "2013": " mult",
    "2014": " aut",
    "2015": " City",
    "2016": " colle",
    "2017": "cially",
    "2018": " proper",
    "2019": " War",
    "2020": " behind",
    "2021": " z",
    "2022": " 17",
    "2023": " military",
    "2024": " wanted",
    "2025": "erman",
    "2026": "uge",
    "2027": " publ",
    "2028": "On",
    "2029": " concern",
    "2030": "What",
    "2031": "ids",
    "2032": " study",
    "2033": " Comm",
    "2034": " sw",
    "2035": " quick",
    "2036": "inton",
    "2037": " North",
    "2038": "ators",
    "2039": " Im",
    "2040": "par",
    "2041": " sum",
    "2042": " Cal",
    "2043": " redu",
    "2044": " discuss",
    "2045": "atic",
    "2046": "nes",
    "2047": "off",
    "2048": " security",
    "2049": " tot",
    "2050": " fall",
    "2051": " Don",
    "2052": "ON",
    "2053": "rael",
    "2054": " player",
    "2055": " mess",
    "2056": " special",
    "2057": " Gr",
    "2058": "An",
    "2059": " policy",
    "2060": " foot",
    "2061": " Sec",
    "2062": " Dep",
    "2063": "rote",
    "2064": " points",
    "2065": " bring",
    "2066": "arter",
    "2067": " research",
    "2068": "When",
    "2069": " 13",
    "2070": "elt",
    "2071": " probably",
    "2072": " attempt",
    "2073": " To",
    "2074": " comb",
    "2075": "ashington",
    "2076": " coun",
    "2077": "ply",
    "2078": "lling",
    "2079": " pret",
    "2080": " pick",
    "2081": " compan",
    "2082": " house",
    "2083": "ches",
    "2084": " Man",
    "2085": " someone",
    "2086": "lish",
    "2087": " taking",
    "2088": " key",
    "2089": " cou",
    "2090": "icult",
    "2091": "RE",
    "2092": "irl",
    "2093": " field",
    "2094": "16",
    "2095": " wa",
    "2096": " benef",
    "2097": "reme",
    "2098": "over",
    "2099": "AN",
    "2100": " imm",
    "2101": " Aust",
    "2102": " body",
    "2103": "ttp",
    "2104": "ify",
    "2105": " targ",
    "2106": " connect",
    "2107": " conv",
    "2108": " similar",
    "2109": " nothing",
    "2110": "dd",
    "2111": " coming",
    "2112": " rights",
    "2113": "cing",
    "2114": "viron",
    "2115": " meas",
    "2116": " food",
    "2117": " jo",
    "2118": " front",
    "2119": " signific",
    "2120": "ming",
    "2121": " space",
    "2122": ".)",
    "2123": " further",
    "2124": " else",
    "2125": " describ",
    "2126": " World",
    "2127": " National",
    "2128": " lab",
    "2129": " ey",
    "2130": "IS",
    "2131": " either",
    "2132": " learn",
    "2133": " exist",
    "2134": " service",
    "2135": "ried",
    "2136": "yn",
    "2137": "ã",
    "2138": "amed",
    "2139": " wrote",
    "2140": " decision",
    "2141": " however",
    "2142": "arth",
    "2143": "oon",
    "2144": "ww",
    "2145": "ault",
    "2146": "aces",
    "2147": " begin",
    "2148": "ully",
    "2149": "ana",
    "2150": " watch",
    "2151": "asing",
    "2152": " repl",
    "2153": " create",
    "2154": "That",
    "2155": "head",
    "2156": " 2013",
    "2157": "ung",
    "2158": " third",
    "2159": " With",
    "2160": " whole",
    "2161": " issues",
    "2162": "ively",
    "2163": "://",
    "2164": " ener",
    "2165": " Washington",
    "2166": " |",
    "2167": " relations",
    "2168": " sus",
    "2169": " +",
    "2170": "14",
    "2171": " protect",
    "2172": "olution",
    "2173": " enc",
    "2174": " chall",
    "2175": " released",
    "2176": " feat",
    "2177": " leaders",
    "2178": " mass",
    "2179": " step",
    "2180": " compl",
    "2181": " room",
    "2182": "pping",
    "2183": "rodu",
    "2184": " tra",
    "2185": " companies",
    "2186": " Gu",
    "2187": " seems",
    "2188": " doc",
    "2189": " stop",
    "2190": " Clinton",
    "2191": " 25",
    "2192": " Dav",
    "2193": "ently",
    "2194": "pite",
    "2195": " due",
    "2196": "So",
    "2197": " opt",
    "2198": "aul",
    "2199": " dam",
    "2200": "ape",
    "2201": "lam",
    "2202": " :",
    "2203": " custom",
    "2204": " federal",
    "2205": " cand",
    "2206": "att",
    "2207": " tem",
    "2208": " fire",
    "2209": " fig",
    "2210": " super",
    "2211": " Israel",
    "2212": " everything",
    "2213": " outside",
    "2214": " began",
    "2215": "ran",
    "2216": " dou",
    "2217": " Jan",
    "2218": " Inst",
    "2219": " final",
    "2220": " However",
    "2221": " character",
    "2222": "now",
    "2223": "amer",
    "2224": "sw",
    "2225": " break",
    "2226": " Bar",
    "2227": " development",
    "2228": " init",
    "2229": " self",
    "2230": "umb",
    "2231": "reg",
    "2232": " amount",
    "2233": "arlier",
    "2234": " matter",
    "2235": "ades",
    "2236": "mb",
    "2237": " itself",
    "2238": "eal",
    "2239": " position",
    "2240": " Part",
    "2241": " tre",
    "2242": " general",
    "2243": " stri",
    "2244": " gun",
    "2245": "ibility",
    "2246": " South",
    "2247": " Ge",
    "2248": " treat",
    "2249": " continue",
    "2250": "pecially",
    "2251": "anks",
    "2252": "ivil",
    "2253": " states",
    "2254": "lu",
    "2255": "ender",
    "2256": " Med",
    "2257": "____",
    "2258": " exec",
    "2259": "AR",
    "2260": "uation",
    "2261": " sound",
    "2262": "iday",
    "2263": " statement",
    "2264": " became",
    "2265": " 2012",
    "2266": "ograph",
    "2267": " himself",
    "2268": "lim",
    "2269": " role",
    "2270": "ili",
    "2271": " neg",
    "2272": " stat",
    "2273": " Intern",
    "2274": " students",
    "2275": "sec",
    "2276": "ery",
    "2277": " Su",
    "2278": " officials",
    "2279": " 2017",
    "2280": " wasn",
    "2281": "vironment",
    "2282": " themselves",
    "2283": " office",
    "2284": " ball",
    "2285": "ilt",
    "2286": " inj",
    "2287": "like",
    "2288": "â",
    "2289": "acebook",
    "2290": " provide",
    "2291": " woman",
    "2292": " agree",
    "2293": " action",
    "2294": "Ch",
    "2295": "ogn",
    "2296": " larg",
    "2297": " significant",
    "2298": " running",
    "2299": "obal",
    "2300": "BC",
    "2301": " difficult",
    "2302": " specific",
    "2303": " profess",
    "2304": " hours",
    "2305": " played",
    "2306": " deep",
    "2307": " capt",
    "2308": " phys",
    "2309": " building",
    "2310": " administ",
    "2311": "18",
    "2312": "aced",
    "2313": " ground",
    "2314": " lat",
    "2315": " true",
    "2316": " simply",
    "2317": " interview",
    "2318": " playing",
    "2319": " cop",
    "2320": " charg",
    "2321": " represent",
    "2322": " 100",
    "2323": " dom",
    "2324": "13",
    "2325": " Just",
    "2326": " saw",
    "2327": " above",
    "2328": "ournal",
    "2329": " common",
    "2330": "body",
    "2331": " below",
    "2332": " App",
    "2333": "ights",
    "2334": " Ed",
    "2335": " ap",
    "2336": " mag",
    "2337": " countries",
    "2338": "'ll",
    "2339": "oid",
    "2340": "irt",
    "2341": "iddle",
    "2342": "eks",
    "2343": " Sep",
    "2344": "tee",
    "2345": " Res",
    "2346": " energy",
    "2347": " evidence",
    "2348": "atur",
    "2349": "ask",
    "2350": "angu",
    "2351": " drug",
    "2352": " sense",
    "2353": " shows",
    "2354": " respons",
    "2355": " groups",
    "2356": "ique",
    "2357": " friends",
    "2358": "iod",
    "2359": " red",
    "2360": " white",
    "2361": "time",
    "2362": " pretty",
    "2363": " needs",
    "2364": " lost",
    "2365": " exc",
    "2366": " everyone",
    "2367": "Ã©",
    "2368": " Ab",
    "2369": " 50",
    "2370": " track",
    "2371": " Ass",
    "2372": "ij",
    "2373": " dest",
    "2374": " bar",
    "2375": " version",
    "2376": " typ",
    "2377": " China",
    "2378": " address",
    "2379": " His",
    "2380": " Mus",
    "2381": " Car",
    "2382": "ift",
    "2383": "ser",
    "2384": " )",
    "2385": " value",
    "2386": " mot",
    "2387": "ele",
    "2388": "ached",
    "2389": "17",
    "2390": " recently",
    "2391": " needed",
    "2392": " pain",
    "2393": " rad",
    "2394": "yle",
    "2395": " forward",
    "2396": " 198",
    "2397": " West",
    "2398": " changes",
    "2399": " candid",
    "2400": " music",
    "2401": " hom",
    "2402": " di",
    "2403": " release",
    "2404": "ogle",
    "2405": " ep",
    "2406": "ccording",
    "2407": " include",
    "2408": " gen",
    "2409": " alleg",
    "2410": "ribut",
    "2411": "oke",
    "2412": " quite",
    "2413": " tit",
    "2414": " late",
    "2415": " industry",
    "2416": " election",
    "2417": "isc",
    "2418": "istic",
    "2419": " circ",
    "2420": "ned",
    "2421": " online",
    "2422": "me",
    "2423": " White",
    "2424": " instead",
    "2425": " After",
    "2426": " German",
    "2427": " site",
    "2428": "arc",
    "2429": "oring",
    "2430": " weeks",
    "2431": "ST",
    "2432": "epend",
    "2433": " deter",
    "2434": " anim",
    "2435": " moment",
    "2436": "osing",
    "2437": " accept",
    "2438": "ental",
    "2439": " host",
    "2440": " jud",
    "2441": " legal",
    "2442": " shoot",
    "2443": " opportun",
    "2444": " vote",
    "2445": " Twitter",
    "2446": "ients",
    "2447": " abs",
    "2448": " ple",
    "2449": "Al",
    "2450": " especially",
    "2451": "where",
    "2452": " wrong",
    "2453": " relig",
    "2454": " parent",
    "2455": " goal",
    "2456": "How",
    "2457": " pie",
    "2458": "omm",
    "2459": "right",
    "2460": "bo",
    "2461": " suff",
    "2462": " decl",
    "2463": "ival",
    "2464": " webs",
    "2465": " My",
    "2466": " Not",
    "2467": " soon",
    "2468": "apt",
    "2469": " 24",
    "2470": " object",
    "2471": " pred",
    "2472": " Cong",
    "2473": " economic",
    "2474": " longer",
    "2475": " Republican",
    "2476": " higher",
    "2477": "medi",
    "2478": " hope",
    "2479": " block",
    "2480": "ularly",
    "2481": "ager",
    "2482": " educ",
    "2483": " Will",
    "2484": " held",
    "2485": "ham",
    "2486": " walk",
    "2487": " period",
    "2488": "oe",
    "2489": "**",
    "2490": " Aug",
    "2491": "irm",
    "2492": " billion",
    "2493": " Dr",
    "2494": " focus",
    "2495": "lt",
    "2496": "oph",
    "2497": "They",
    "2498": " technology",
    "2499": " consum",
    "2500": " News",
    "2501": "asons",
    "2502": " review",
    "2503": " code",
    "2504": " laws",
    "2505": "ript",
    "2506": " works",
    "2507": " stay",
    "2508": " share",
    "2509": "cial",
    "2510": " Department",
    "2511": " Oct",
    "2512": "onse",
    "2513": " target",
    "2514": "ray",
    "2515": " Mich",
    "2516": " check",
    "2517": "iding",
    "2518": " These",
    "2519": " consider",
    "2520": " March",
    "2521": "duct",
    "2522": "hod",
    "2523": " led",
    "2524": " stru",
    "2525": "cle",
    "2526": " personal",
    "2527": "urd",
    "2528": " hy",
    "2529": "overed",
    "2530": "ole",
    "2531": " reve",
    "2532": " results",
    "2533": " anyone",
    "2534": " vol",
    "2535": " Austral",
    "2536": " age",
    "2537": "ude",
    "2538": " dead",
    "2539": " words",
    "2540": "rel",
    "2541": " minutes",
    "2542": " sold",
    "2543": "cil",
    "2544": " potential",
    "2545": " den",
    "2546": " earlier",
    "2547": " contract",
    "2548": " wind",
    "2549": "key",
    "2550": "hern",
    "2551": "Ad",
    "2552": " favor",
    "2553": " base",
    "2554": "ateg",
    "2555": " total",
    "2556": " July",
    "2557": " services",
    "2558": " En",
    "2559": " rate",
    "2560": " applic",
    "2561": "pril",
    "2562": "ã",
    "2563": " prim",
    "2564": " risk",
    "2565": " Ð",
    "2566": " lo",
    "2567": " necess",
    "2568": "aging",
    "2569": "action",
    "2570": " June",
    "2571": "hel",
    "2572": " force",
    "2573": "ilities",
    "2574": " popular",
    "2575": " impact",
    "2576": "lement",
    "2577": " Facebook",
    "2578": " Sm",
    "2579": " scient",
    "2580": "uary",
    "2581": "isl",
    "2582": " article",
    "2583": "haps",
    "2584": " speak",
    "2585": " rev",
    "2586": "AS",
    "2587": " Mond",
    "2588": "anger",
    "2589": " ways",
    "2590": " created",
    "2591": "ourt",
    "2592": " Red",
    "2593": "ends",
    "2594": "uel",
    "2595": "alt",
    "2596": " aud",
    "2597": " <",
    "2598": "icro",
    "2599": " surpr",
    "2600": "fect",
    "2601": " problems",
    "2602": " God",
    "2603": "ember",
    "2604": "aut",
    "2605": " 2011",
    "2606": " cannot",
    "2607": "EN",
    "2608": " anti",
    "2609": " upd",
    "2610": " respect",
    "2611": " expected",
    "2612": "fer",
    "2613": " Me",
    "2614": " coll",
    "2615": " shot",
    "2616": " answ",
    "2617": "itution",
    "2618": " questions",
    "2619": "25",
    "2620": "iple",
    "2621": " Pe",
    "2622": " club",
    "2623": "Ph",
    "2624": " private",
    "2625": "apan",
    "2626": " increase",
    "2627": " express",
    "2628": " involved",
    "2629": " Congress",
    "2630": "ctor",
    "2631": "val",
    "2632": "ples",
    "2633": " cred",
    "2634": "itiz",
    "2635": " received",
    "2636": "reet",
    "2637": " function",
    "2638": " easy",
    "2639": " Syri",
    "2640": "ancial",
    "2641": " environment",
    "2642": " comment",
    "2643": "oto",
    "2644": " content",
    "2645": " subject",
    "2646": " comput",
    "2647": " mater",
    "2648": "aving",
    "2649": " langu",
    "2650": "cast",
    "2651": "ams",
    "2652": "bit",
    "2653": " Hill",
    "2654": " Monday",
    "2655": " port",
    "2656": "OR",
    "2657": " price",
    "2658": "urg",
    "2659": " announced",
    "2660": " tou",
    "2661": " pack",
    "2662": "che",
    "2663": " relationship",
    "2664": " San",
    "2665": " users",
    "2666": " exact",
    "2667": " broad",
    "2668": "atives",
    "2669": " heart",
    "2670": " staff",
    "2671": " Do",
    "2672": " civil",
    "2673": "eed",
    "2674": " sen",
    "2675": " nearly",
    "2676": " response",
    "2677": " original",
    "2678": " Calif",
    "2679": "put",
    "2680": "ule",
    "2681": " execut",
    "2682": " reports",
    "2683": "lled",
    "2684": "atural",
    "2685": " living",
    "2686": " cases",
    "2687": " Friday",
    "2688": "lex",
    "2689": " Count",
    "2690": "ires",
    "2691": " April",
    "2692": " arrest",
    "2693": " mother",
    "2694": "ips",
    "2695": "uesday",
    "2696": "llig",
    "2697": " cal",
    "2698": "ops",
    "2699": " pur",
    "2700": "tember",
    "2701": "hood",
    "2702": "onst",
    "2703": " collect",
    "2704": " inside",
    "2705": " oil",
    "2706": "okes",
    "2707": " terms",
    "2708": " worked",
    "2709": "ests",
    "2710": "At",
    "2711": " Wed",
    "2712": " store",
    "2713": " TV",
    "2714": " becom",
    "2715": "mp",
    "2716": " nation",
    "2717": " Pal",
    "2718": "ites",
    "2719": " type",
    "2720": " div",
    "2721": " {",
    "2722": "mon",
    "2723": " squ",
    "2724": "ael",
    "2725": "rought",
    "2726": " respond",
    "2727": "eter",
    "2728": " fans",
    "2729": " girl",
    "2730": "60",
    "2731": " round",
    "2732": "ought",
    "2733": " average",
    "2734": " Now",
    "2735": "org",
    "2736": " immedi",
    "2737": " 197",
    "2738": " soft",
    "2739": " teams",
    "2740": " lack",
    "2741": "omb",
    "2742": " Sund",
    "2743": " Russia",
    "2744": " published",
    "2745": "joy",
    "2746": " international",
    "2747": " killed",
    "2748": " takes",
    "2749": "oor",
    "2750": " worth",
    "2751": " Americans",
    "2752": "izing",
    "2753": "ctions",
    "2754": " Tuesday",
    "2755": " 40",
    "2756": " estab",
    "2757": "istan",
    "2758": "To",
    "2759": " 2010",
    "2760": " network",
    "2761": " Islam",
    "2762": " terror",
    "2763": " Afric",
    "2764": " workers",
    "2765": " ability",
    "2766": " defin",
    "2767": "nesday",
    "2768": " chance",
    "2769": " gave",
    "2770": " cy",
    "2771": " associ",
    "2772": "\".",
    "2773": " arri",
    "2774": "vertise",
    "2775": "na",
    "2776": " While",
    "2777": " British",
    "2778": " Ang",
    "2779": " Google",
    "2780": " director",
    "2781": " career",
    "2782": " cell",
    "2783": " whose",
    "2784": " mid",
    "2785": " decided",
    "2786": " leave",
    "2787": "rain",
    "2788": " numbers",
    "2789": "ornia",
    "2790": "icated",
    "2791": "oved",
    "2792": " ste",
    "2793": " weap",
    "2794": " fem",
    "2795": "ises",
    "2796": " happened",
    "2797": "ological",
    "2798": "clus",
    "2799": " emer",
    "2800": "ners",
    "2801": " buy",
    "2802": "based",
    "2803": " capital",
    "2804": " Japan",
    "2805": " affect",
    "2806": " Cor",
    "2807": "ky",
    "2808": " model",
    "2809": " source",
    "2810": "aily",
    "2811": " et",
    "2812": "ees",
    "2813": " @",
    "2814": " goes",
    "2815": " road",
    "2816": " Nove",
    "2817": " lives",
    "2818": " Some",
    "2819": " Act",
    "2820": "One",
    "2821": " log",
    "2822": " Off",
    "2823": " influ",
    "2824": " turned",
    "2825": " Per",
    "2826": " tal",
    "2827": " plans",
    "2828": " match",
    "2829": "bl",
    "2830": "aur",
    "2831": " currently",
    "2832": " recogn",
    "2833": " global",
    "2834": "ursday",
    "2835": " approach",
    "2836": " Wednesday",
    "2837": " phone",
    "2838": " material",
    "2839": " require",
    "2840": " 22",
    "2841": "osition",
    "2842": " foreign",
    "2843": " By",
    "2844": " David",
    "2845": " September",
    "2846": " El",
    "2847": " offer",
    "2848": " situation",
    "2849": "fully",
    "2850": " administration",
    "2851": " thous",
    "2852": " events",
    "2853": "order",
    "2854": " Ag",
    "2855": " mis",
    "2856": "bor",
    "2857": " Sch",
    "2858": " regard",
    "2859": "ills",
    "2860": "unt",
    "2861": " introdu",
    "2862": "ese",
    "2863": " January",
    "2864": "ened",
    "2865": " Bro",
    "2866": " couple",
    "2867": "oud",
    "2868": " hon",
    "2869": "ino",
    "2870": " Gl",
    "2871": " lower",
    "2872": " trade",
    "2873": " Paul",
    "2874": " August",
    "2875": " loss",
    "2876": " felt",
    "2877": " pict",
    "2878": " Court",
    "2879": "ume",
    "2880": "set",
    "2881": " boy",
    "2882": " improve",
    "2883": " member",
    "2884": " ill",
    "2885": " 21",
    "2886": "lev",
    "2887": "ech",
    "2888": " method",
    "2889": " bank",
    "2890": " huge",
    "2891": " repe",
    "2892": " race",
    "2893": " pull",
    "2894": " website",
    "2895": " tool",
    "2896": "AC",
    "2897": " father",
    "2898": " Sunday",
    "2899": " California",
    "2900": " struct",
    "2901": " fre",
    "2902": " Ne",
    "2903": "load",
    "2904": " page",
    "2905": "rect",
    "2906": " quickly",
    "2907": " legisl",
    "2908": " wide",
    "2909": " simple",
    "2910": " meeting",
    "2911": " heard",
    "2912": " performance",
    "2913": "ety",
    "2914": " knew",
    "2915": " Thursday",
    "2916": " secret",
    "2917": "orters",
    "2918": "estern",
    "2919": " financial",
    "2920": " Feb",
    "2921": " dig",
    "2922": " travel",
    "2923": " movement",
    "2924": "ruction",
    "2925": " areas",
    "2926": "ening",
    "2927": " tried",
    "2928": " via",
    "2929": " text",
    "2930": " November",
    "2931": " cover",
    "2932": " pers",
    "2933": "40",
    "2934": " norm",
    "2935": "sych",
    "2936": " ord",
    "2937": "--------",
    "2938": "uses",
    "2939": " reach",
    "2940": " town",
    "2941": " behav",
    "2942": "ma",
    "2943": "atory",
    "2944": " economy",
    "2945": "ging",
    "2946": "aker",
    "2947": " reveal",
    "2948": " poll",
    "2949": " Center",
    "2950": " enjoy",
    "2951": "gest",
    "2952": " production",
    "2953": "Sh",
    "2954": " built",
    "2955": " hands",
    "2956": " allowed",
    "2957": "â.",
    "2958": " particip",
    "2959": " included",
    "2960": "ification",
    "2961": "chie",
    "2962": "lin",
    "2963": " fear",
    "2964": ");",
    "2965": " separ",
    "2966": " board",
    "2967": " wants",
    "2968": "'d",
    "2969": "down",
    "2970": " victim",
    "2971": " fell",
    "2972": " bi",
    "2973": "iction",
    "2974": " particular",
    "2975": " 23",
    "2976": " email",
    "2977": " visit",
    "2978": " brought",
    "2979": "force",
    "2980": " http",
    "2981": " previous",
    "2982": " Black",
    "2983": "face",
    "2984": " Post",
    "2985": " cause",
    "2986": "urning",
    "2987": " morning",
    "2988": "ceed",
    "2989": "uk",
    "2990": "After",
    "2991": " size",
    "2992": " attention",
    "2993": "\",",
    "2994": " hot",
    "2995": "raz",
    "2996": " star",
    "2997": "idered",
    "2998": "With",
    "2999": " spent",
    "3000": " veh",
    "3001": " latest",
    "3002": " Senate",
    "3003": " ens",
    "3004": "avy",
    "3005": " paper",
    "3006": " mention",
    "3007": " October",
    "3008": "?â",
    "3009": " perfect",
    "3010": " forces",
    "3011": "urb",
    "3012": "ES",
    "3013": "ground",
    "3014": " Sw",
    "3015": "99",
    "3016": "ession",
    "3017": " Qu",
    "3018": " Canada",
    "3019": "fl",
    "3020": " neigh",
    "3021": " engine",
    "3022": " training",
    "3023": "Ð¾",
    "3024": "IT",
    "3025": "undred",
    "3026": "ibly",
    "3027": "While",
    "3028": " demand",
    "3029": " Tex",
    "3030": "ences",
    "3031": "ps",
    "3032": " 2008",
    "3033": " population",
    "3034": "iant",
    "3035": "arily",
    "3036": "ston",
    "3037": "ille",
    "3038": "agement",
    "3039": "alled",
    "3040": " link",
    "3041": " looks",
    "3042": "oo",
    "3043": " leader",
    "3044": " Par",
    "3045": "uf",
    "3046": "rim",
    "3047": "iers",
    "3048": " Jew",
    "3049": "ondon",
    "3050": "ledge",
    "3051": "cember",
    "3052": "aturday",
    "3053": " levels",
    "3054": " Russian",
    "3055": "sequ",
    "3056": " rac",
    "3057": "het",
    "3058": " wond",
    "3059": "yond",
    "3060": "hold",
    "3061": " Park",
    "3062": " progress",
    "3063": "icles",
    "3064": " citiz",
    "3065": " independ",
    "3066": " exam",
    "3067": " European",
    "3068": " gets",
    "3069": " fair",
    "3070": " various",
    "3071": " growth",
    "3072": " fast",
    "3073": " box",
    "3074": " Times",
    "3075": " coach",
    "3076": " India",
    "3077": "AL",
    "3078": " talking",
    "3079": " contact",
    "3080": " vo",
    "3081": " Party",
    "3082": "uit",
    "3083": "200",
    "3084": "ecause",
    "3085": "aries",
    "3086": " Her",
    "3087": "eg",
    "3088": " bud",
    "3089": " considered",
    "3090": " }",
    "3091": " search",
    "3092": "idents",
    "3093": " strugg",
    "3094": " sort",
    "3095": " doll",
    "3096": " League",
    "3097": " County",
    "3098": " medical",
    "3099": " und",
    "3100": " image",
    "3101": "....",
    "3102": "ope",
    "3103": "inks",
    "3104": " investigation",
    "3105": " hor",
    "3106": " addition",
    "3107": "ED",
    "3108": " parents",
    "3109": " language",
    "3110": " IS",
    "3111": " sens",
    "3112": " rules",
    "3113": "Tr",
    "3114": "vent",
    "3115": "ico",
    "3116": "pir",
    "3117": " prison",
    "3118": "ani",
    "3119": " range",
    "3120": "wo",
    "3121": "atform",
    "3122": " speed",
    "3123": " ess",
    "3124": " Iran",
    "3125": " reb",
    "3126": "field",
    "3127": " Street",
    "3128": "ny",
    "3129": "ysis",
    "3130": " conduct",
    "3131": "lligence",
    "3132": "uments",
    "3133": "omp",
    "3134": " critic",
    "3135": " Kore",
    "3136": " Cont",
    "3137": "raq",
    "3138": "come",
    "3139": "unk",
    "3140": "aph",
    "3141": "igr",
    "3142": " Pat",
    "3143": "eared",
    "3144": " features",
    "3145": " son",
    "3146": "zz",
    "3147": "eth",
    "3148": " written",
    "3149": "idge",
    "3150": "IC",
    "3151": " serious",
    "3152": " slow",
    "3153": " increasing",
    "3154": "vey",
    "3155": " Mark",
    "3156": "aming",
    "3157": " liber",
    "3158": " Saturday",
    "3159": " December",
    "3160": " stuff",
    "3161": " sexual",
    "3162": " achie",
    "3163": "ication",
    "3164": " Muslim",
    "3165": "ining",
    "3166": " society",
    "3167": " 28",
    "3168": " extreme",
    "3169": "ze",
    "3170": " prep",
    "3171": " attacks",
    "3172": " seven",
    "3173": "light",
    "3174": " modern",
    "3175": "cies",
    "3176": " song",
    "3177": " jobs",
    "3178": " upon",
    "3179": " document",
    "3180": "imately",
    "3181": " prevent",
    "3182": "isions",
    "3183": " middle",
    "3184": " spokes",
    "3185": "Ðµ",
    "3186": " London",
    "3187": " hear",
    "3188": " guy",
    "3189": " More",
    "3190": " journal",
    "3191": "vertisement",
    "3192": "ida",
    "3193": " systems",
    "3194": " seek",
    "3195": " UK",
    "3196": "abor",
    "3197": " particularly",
    "3198": " stories",
    "3199": "FL",
    "3200": " doub",
    "3201": " card",
    "3202": "Im",
    "3203": "rench",
    "3204": " hous",
    "3205": " draw",
    "3206": " despite",
    "3207": " opportunity",
    "3208": " extra",
    "3209": " inn",
    "3210": "erc",
    "3211": "oman",
    "3212": " message",
    "3213": " term",
    "3214": " Iraq",
    "3215": "anced",
    "3216": " dro",
    "3217": " required",
    "3218": "ruary",
    "3219": " obv",
    "3220": "OP",
    "3221": "entially",
    "3222": " mach",
    "3223": " defense",
    "3224": " biggest",
    "3225": " summer",
    "3226": "room",
    "3227": " resour",
    "3228": "Â­",
    "3229": " sn",
    "3230": " blood",
    "3231": " prior",
    "3232": " regul",
    "3233": " 26",
    "3234": " majority",
    "3235": " costs",
    "3236": " cross",
    "3237": "icks",
    "3238": " effort",
    "3239": " violence",
    "3240": " Donald",
    "3241": " completely",
    "3242": "ament",
    "3243": " products",
    "3244": "eff",
    "3245": " pen",
    "3246": " quarter",
    "3247": "illed",
    "3248": " table",
    "3249": " carry",
    "3250": " Net",
    "3251": "itch",
    "3252": " imag",
    "3253": " McC",
    "3254": " hundred",
    "3255": " natural",
    "3256": " aren",
    "3257": " aw",
    "3258": " surv",
    "3259": " culture",
    "3260": " died",
    "3261": "ago",
    "3262": "akers",
    "3263": "aves",
    "3264": "nces",
    "3265": " East",
    "3266": " remain",
    "3267": " occur",
    "3268": " interesting",
    "3269": " Em",
    "3270": "lear",
    "3271": "asc",
    "3272": "She",
    "3273": "ishing",
    "3274": " reading",
    "3275": " ult",
    "3276": "rast",
    "3277": "bed",
    "3278": " histor",
    "3279": " looked",
    "3280": " gas",
    "3281": " mob",
    "3282": "reedom",
    "3283": "lying",
    "3284": " certainly",
    "3285": " Mor",
    "3286": " convers",
    "3287": " showed",
    "3288": " described",
    "3289": " ...",
    "3290": " officers",
    "3291": " leading",
    "3292": " answer",
    "3293": " 27",
    "3294": " ones",
    "3295": " exactly",
    "3296": " region",
    "3297": " claims",
    "3298": " paid",
    "3299": "ford",
    "3300": " eight",
    "3301": " lay",
    "3302": "aught",
    "3303": "add",
    "3304": " increased",
    "3305": "inally",
    "3306": "aly",
    "3307": " except",
    "3308": " finally",
    "3309": "ett",
    "3310": " quality",
    "3311": " sometimes",
    "3312": " Jack",
    "3313": "uing",
    "3314": " conserv",
    "3315": " changed",
    "3316": "22",
    "3317": " climate",
    "3318": " football",
    "3319": " fit",
    "3320": " continued",
    "3321": "oses",
    "3322": "utions",
    "3323": " camer",
    "3324": " Republicans",
    "3325": "ension",
    "3326": " starting",
    "3327": "tr",
    "3328": " practice",
    "3329": " Che",
    "3330": " science",
    "3331": " education",
    "3332": " Spe",
    "3333": " Coun",
    "3334": " crim",
    "3335": " Texas",
    "3336": " experien",
    "3337": "ously",
    "3338": " named",
    "3339": " Sand",
    "3340": " writing",
    "3341": " comments",
    "3342": "orge",
    "3343": "ospital",
    "3344": " write",
    "3345": "mitted",
    "3346": "enge",
    "3347": "ibr",
    "3348": " growing",
    "3349": " giving",
    "3350": " Indian",
    "3351": " wouldn",
    "3352": " standard",
    "3353": "yl",
    "3354": " assist",
    "3355": " tro",
    "3356": " remains",
    "3357": "tain",
    "3358": " poor",
    "3359": " Ke",
    "3360": " Soc",
    "3361": "HE",
    "3362": " 2009",
    "3363": " user",
    "3364": " screen",
    "3365": " Â£",
    "3366": " failed",
    "3367": "ari",
    "3368": "inese",
    "3369": " Cons",
    "3370": " provided",
    "3371": " *",
    "3372": " parts",
    "3373": "ports",
    "3374": " path",
    "3375": " danger",
    "3376": "oul",
    "3377": "using",
    "3378": "arr",
    "3379": " purch",
    "3380": " thinking",
    "3381": " request",
    "3382": " multiple",
    "3383": "No",
    "3384": " Bill",
    "3385": "urt",
    "3386": "iment",
    "3387": " movie",
    "3388": " James",
    "3389": " chief",
    "3390": " demonst",
    "3391": " unf",
    "3392": "AM",
    "3393": " platform",
    "3394": " effects",
    "3395": " Mon",
    "3396": "inary",
    "3397": " â¦",
    "3398": " guys",
    "3399": " Even",
    "3400": " league",
    "3401": "][",
    "3402": "ables",
    "3403": " Democratic",
    "3404": " English",
    "3405": "pre",
    "3406": " purp",
    "3407": " February",
    "3408": "oper",
    "3409": " spot",
    "3410": "coin",
    "3411": " kids",
    "3412": " damage",
    "3413": " rob",
    "3414": "ges",
    "3415": " alone",
    "3416": " center",
    "3417": " (@",
    "3418": " cele",
    "3419": " brain",
    "3420": " couldn",
    "3421": " reality",
    "3422": " throughout",
    "3423": " ban",
    "3424": "eneral",
    "3425": " details",
    "3426": " King",
    "3427": "ara",
    "3428": " although",
    "3429": "23",
    "3430": " thousands",
    "3431": "urance",
    "3432": " researc",
    "3433": " directly",
    "3434": " pan",
    "3435": " voters",
    "3436": " file",
    "3437": " includes",
    "3438": " consist",
    "3439": "rowd",
    "3440": " Michael",
    "3441": "amb",
    "3442": " books",
    "3443": " towards",
    "3444": " touch",
    "3445": " Des",
    "3446": "OT",
    "3447": " safe",
    "3448": "24",
    "3449": "fort",
    "3450": " additional",
    "3451": " subst",
    "3452": "rs",
    "3453": " ready",
    "3454": "pper",
    "3455": " fix",
    "3456": " beyond",
    "3457": " usually",
    "3458": " ahead",
    "3459": " Serv",
    "3460": "itute",
    "3461": " passed",
    "3462": " perhaps",
    "3463": "BI",
    "3464": " cat",
    "3465": "â ",
    "3466": " date",
    "3467": "ampions",
    "3468": " implement",
    "3469": " immediately",
    "3470": " efforts",
    "3471": "ha",
    "3472": " epis",
    "3473": " avoid",
    "3474": " mill",
    "3475": " dark",
    "3476": "hib",
    "3477": "adem",
    "3478": " counter",
    "3479": " concept",
    "3480": " remember",
    "3481": " item",
    "3482": " debate",
    "3483": " calls",
    "3484": " il",
    "3485": " toward",
    "3486": " earn",
    "3487": " title",
    "3488": " score",
    "3489": "astic",
    "3490": " recomm",
    "3491": "anch",
    "3492": " select",
    "3493": " piece",
    "3494": "Cl",
    "3495": " clean",
    "3496": "wise",
    "3497": " sat",
    "3498": " letter",
    "3499": " sell",
    "3500": " safety",
    "3501": " gone",
    "3502": " Democrats",
    "3503": " choice",
    "3504": " ver",
    "3505": " sle",
    "3506": " meaning",
    "3507": " Tur",
    "3508": "cient",
    "3509": " option",
    "3510": "raight",
    "3511": "tered",
    "3512": " beginning",
    "3513": " scene",
    "3514": " relative",
    "3515": "Now",
    "3516": "OS",
    "3517": "ications",
    "3518": " reasons",
    "3519": "rupt",
    "3520": " opin",
    "3521": " conditions",
    "3522": "ression",
    "3523": " appears",
    "3524": "Ð°",
    "3525": "rief",
    "3526": " helped",
    "3527": " launch",
    "3528": "All",
    "3529": " agency",
    "3530": " Minister",
    "3531": " psych",
    "3532": " disapp",
    "3533": "aches",
    "3534": " Chinese",
    "3535": "inated",
    "3536": " designed",
    "3537": "hest",
    "3538": " dog",
    "3539": " difference",
    "3540": "atever",
    "3541": " wife",
    "3542": " Ser",
    "3543": " ten",
    "3544": " receive",
    "3545": " x",
    "3546": "roy",
    "3547": " Green",
    "3548": " century",
    "3549": " throw",
    "3550": "==",
    "3551": "AD",
    "3552": " officer",
    "3553": " color",
    "3554": " college",
    "3555": " moved",
    "3556": " 60",
    "3557": " Rober",
    "3558": " Associ",
    "3559": " property",
    "3560": "oes",
    "3561": " dise",
    "3562": " figure",
    "3563": " challeng",
    "3564": " William",
    "3565": "men",
    "3566": "irth",
    "3567": " deg",
    "3568": "riage",
    "3569": " speech",
    "3570": "omen",
    "3571": " physical",
    "3572": " ign",
    "3573": "uclear",
    "3574": "ilies",
    "3575": " First",
    "3576": " pressure",
    "3577": " clos",
    "3578": " Day",
    "3579": " aim",
    "3580": "de",
    "3581": " ut",
    "3582": " Bo",
    "3583": " compared",
    "3584": " maybe",
    "3585": " suspect",
    "3586": " sil",
    "3587": " copy",
    "3588": "ube",
    "3589": " corpor",
    "3590": "imum",
    "3591": "berg",
    "3592": "ivity",
    "3593": "ux",
    "3594": "By",
    "3595": " Of",
    "3596": " sal",
    "3597": " complex",
    "3598": " Then",
    "3599": " Rich",
    "3600": " 29",
    "3601": " Mex",
    "3602": "icient",
    "3603": "arian",
    "3604": " software",
    "3605": " income",
    "3606": " student",
    "3607": "new",
    "3608": "AP",
    "3609": " nature",
    "3610": "airs",
    "3611": "aughter",
    "3612": " eyes",
    "3613": " myself",
    "3614": "iles",
    "3615": " encour",
    "3616": "venue",
    "3617": "?\"",
    "3618": " smart",
    "3619": "Is",
    "3620": " alleged",
    "3621": "itor",
    "3622": " arch",
    "3623": " device",
    "3624": " rock",
    "3625": " fan",
    "3626": "80",
    "3627": "iable",
    "3628": " necessary",
    "3629": "ufact",
    "3630": " happy",
    "3631": "US",
    "3632": " park",
    "3633": "sp",
    "3634": "olute",
    "3635": " characters",
    "3636": " organization",
    "3637": " â",
    "3638": " cool",
    "3639": " moving",
    "3640": " largest",
    "3641": " Play",
    "3642": " followed",
    "3643": " estim",
    "3644": " politics",
    "3645": " actions",
    "3646": "My",
    "3647": "ocked",
    "3648": " powerful",
    "3649": "just",
    "3650": " prem",
    "3651": " battle",
    "3652": "agon",
    "3653": " meant",
    "3654": "wood",
    "3655": " Val",
    "3656": " treatment",
    "3657": " spending",
    "3658": " web",
    "3659": " aware",
    "3660": "resh",
    "3661": " wall",
    "3662": "ero",
    "3663": "Re",
    "3664": " blog",
    "3665": " analysis",
    "3666": "chan",
    "3667": " tour",
    "3668": " feed",
    "3669": "iring",
    "3670": "arning",
    "3671": " positive",
    "3672": " nom",
    "3673": " citizens",
    "3674": "yan",
    "3675": " shown",
    "3676": " display",
    "3677": " sche",
    "3678": " esc",
    "3679": " candidate",
    "3680": " yourself",
    "3681": " twe",
    "3682": " cast",
    "3683": "enty",
    "3684": " limited",
    "3685": " stage",
    "3686": " bott",
    "3687": "ota",
    "3688": " II",
    "3689": " budget",
    "3690": "osh",
    "3691": "erve",
    "3692": " sales",
    "3693": "Advertisement",
    "3694": "more",
    "3695": " yes",
    "3696": " prec",
    "3697": " schools",
    "3698": " band",
    "3699": " charge",
    "3700": " computer",
    "3701": "uty",
    "3702": "inn",
    "3703": " French",
    "3704": "orks",
    "3705": " contribut",
    "3706": " crowd",
    "3707": " refer",
    "3708": " mix",
    "3709": " Angel",
    "3710": " forced",
    "3711": " conference",
    "3712": "orney",
    "3713": "orter",
    "3714": " measure",
    "3715": "igration",
    "3716": " drive",
    "3717": " bal",
    "3718": "itation",
    "3719": " eventually",
    "3720": " easily",
    "3721": " Tor",
    "3722": " Sim",
    "3723": " presidential",
    "3724": " correct",
    "3725": " draft",
    "3726": " overall",
    "3727": " straight",
    "3728": "ken",
    "3729": " religious",
    "3730": "iny",
    "3731": " Super",
    "3732": " appeared",
    "3733": " truth",
    "3734": " Mart",
    "3735": " note",
    "3736": " Wind",
    "3737": " Jer",
    "3738": " Here",
    "3739": "According",
    "3740": "change",
    "3741": " pus",
    "3742": " autom",
    "3743": " confir",
    "3744": " allows",
    "3745": " families",
    "3746": " executive",
    "3747": " Air",
    "3748": "New",
    "3749": " Australia",
    "3750": " rap",
    "3751": " ang",
    "3752": " unique",
    "3753": " expand",
    "3754": " customers",
    "3755": " virt",
    "3756": " swe",
    "3757": " individuals",
    "3758": " disp",
    "3759": " streng",
    "3760": " crime",
    "3761": " feature",
    "3762": " Smith",
    "3763": " cris",
    "3764": " illeg",
    "3765": " detail",
    "3766": "ressed",
    "3767": " Ben",
    "3768": "bum",
    "3769": "Be",
    "3770": "):",
    "3771": " frequ",
    "3772": " decades",
    "3773": " drop",
    "3774": " developed",
    "3775": " command",
    "3776": " firm",
    "3777": " La",
    "3778": " attract",
    "3779": "0000",
    "3780": " seemed",
    "3781": " advant",
    "3782": " emb",
    "3783": " challenge",
    "3784": " continues",
    "3785": " signed",
    "3786": "ville",
    "3787": "rated",
    "3788": " predict",
    "3789": " brother",
    "3790": " Syria",
    "3791": "45",
    "3792": " lif",
    "3793": "Un",
    "3794": " rates",
    "3795": " grad",
    "3796": " knows",
    "3797": "craft",
    "3798": " lines",
    "3799": " Apple",
    "3800": " Council",
    "3801": " International",
    "3802": "olic",
    "3803": " benefits",
    "3804": "aint",
    "3805": "IA",
    "3806": " rare",
    "3807": " successful",
    "3808": " kept",
    "3809": " Police",
    "3810": "27",
    "3811": " nice",
    "3812": " central",
    "3813": " knowledge",
    "3814": "lease",
    "3815": " Comp",
    "3816": " har",
    "3817": " sto",
    "3818": " apparent",
    "3819": " reached",
    "3820": " goals",
    "3821": " reform",
    "3822": "26",
    "3823": " 196",
    "3824": " promot",
    "3825": "Some",
    "3826": " Internet",
    "3827": " manager",
    "3828": " lic",
    "3829": " Earth",
    "3830": " analy",
    "3831": "ean",
    "3832": "ength",
    "3833": " gives",
    "3834": "ki",
    "3835": " uses",
    "3836": "itness",
    "3837": "ares",
    "3838": " mist",
    "3839": "Don",
    "3840": "band",
    "3841": " previously",
    "3842": " indic",
    "3843": "ET",
    "3844": " trust",
    "3845": " minor",
    "3846": "35",
    "3847": " noted",
    "3848": " Christian",
    "3849": "nown",
    "3850": " vac",
    "3851": "itely",
    "3852": " highly",
    "3853": "while",
    "3854": " manufact",
    "3855": " feet",
    "3856": " ideas",
    "3857": " cities",
    "3858": "ado",
    "3859": " studies",
    "3860": "net",
    "3861": " susp",
    "3862": " fully",
    "3863": " door",
    "3864": "term",
    "3865": " Up",
    "3866": " Star",
    "3867": "antly",
    "3868": " shooting",
    "3869": " reflect",
    "3870": " beaut",
    "3871": " Bel",
    "3872": "icago",
    "3873": "oti",
    "3874": " From",
    "3875": " projects",
    "3876": " Flor",
    "3877": " organiz",
    "3878": " emot",
    "3879": "iance",
    "3880": "iverse",
    "3881": " senior",
    "3882": " incident",
    "3883": " Cup",
    "3884": " Govern",
    "3885": "wide",
    "3886": " programs",
    "3887": " calling",
    "3888": " Mac",
    "3889": " raised",
    "3890": "sey",
    "3891": "BA",
    "3892": " weapons",
    "3893": " altern",
    "3894": " Tom",
    "3895": " larger",
    "3896": " greater",
    "3897": "board",
    "3898": "part",
    "3899": " save",
    "3900": " peace",
    "3901": "mar",
    "3902": " favorite",
    "3903": " gold",
    "3904": "Ar",
    "3905": "onents",
    "3906": " nuclear",
    "3907": " related",
    "3908": " Franc",
    "3909": " caused",
    "3910": "onent",
    "3911": " School",
    "3912": "ounds",
    "3913": "________",
    "3914": " places",
    "3915": "aith",
    "3916": " owners",
    "3917": "cul",
    "3918": "attle",
    "3919": " intelligence",
    "3920": " traff",
    "3921": "roll",
    "3922": " eth",
    "3923": " Rec",
    "3924": " wait",
    "3925": " researchers",
    "3926": " fighting",
    "3927": "28",
    "3928": "29",
    "3929": " primary",
    "3930": " voice",
    "3931": " George",
    "3932": " status",
    "3933": " patients",
    "3934": " employees",
    "3935": " regular",
    "3936": "ipp",
    "3937": " criminal",
    "3938": "oles",
    "3939": " General",
    "3940": "rol",
    "3941": " fine",
    "3942": " eye",
    "3943": " Brown",
    "3944": "itude",
    "3945": " send",
    "3946": "iced",
    "3947": " rule",
    "3948": " green",
    "3949": " clearly",
    "3950": "mission",
    "3951": " rise",
    "3952": "CC",
    "3953": " prices",
    "3954": "icit",
    "3955": "Not",
    "3956": " liter",
    "3957": " Every",
    "3958": " 2007",
    "3959": "see",
    "3960": " Def",
    "3961": "miss",
    "3962": " Rob",
    "3963": " push",
    "3964": " High",
    "3965": "encies",
    "3966": " resources",
    "3967": "box",
    "3968": " arm",
    "3969": " spread",
    "3970": "secut",
    "3971": "ica",
    "3972": " female",
    "3973": "bon",
    "3974": "uana",
    "3975": "owers",
    "3976": "aud",
    "3977": " Union",
    "3978": "oday",
    "3979": " Ant",
    "3980": "ya",
    "3981": "usion",
    "3982": "ingly",
    "3983": " crisis",
    "3984": " Bay",
    "3985": " creating",
    "3986": " sources",
    "3987": " haven",
    "3988": " Dis",
    "3989": " supposed",
    "3990": "lection",
    "3991": " activity",
    "3992": " Met",
    "3993": "iders",
    "3994": "ID",
    "3995": "21",
    "3996": " shut",
    "3997": "OM",
    "3998": "ocks",
    "3999": " district",
    "4000": "ategy",
    "4001": "iled",
    "4002": "igned",
    "4003": " claimed",
    "4004": " funding",
    "4005": " charges",
    "4006": " style",
    "4007": " spir",
    "4008": " conflic",
    "4009": " Lou",
    "4010": "vere",
    "4011": " pun",
    "4012": " policies",
    "4013": "ifying",
    "4014": " parties",
    "4015": " Sun",
    "4016": ".'",
    "4017": " telev",
    "4018": " laun",
    "4019": " spend",
    "4020": " integr",
    "4021": " names",
    "4022": " Gold",
    "4023": " lik",
    "4024": " Reg",
    "4025": "EO",
    "4026": "spect",
    "4027": " slight",
    "4028": "ijuana",
    "4029": " seeing",
    "4030": "EC",
    "4031": " normal",
    "4032": " agreement",
    "4033": " traditional",
    "4034": " hospital",
    "4035": "ona",
    "4036": " basic",
    "4037": " album",
    "4038": " believed",
    "4039": " ended",
    "4040": " wonder",
    "4041": " offered",
    "4042": " grand",
    "4043": " obser",
    "4044": " happens",
    "4045": "earch",
    "4046": " Florida",
    "4047": " impl",
    "4048": " acqu",
    "4049": " options",
    "4050": "ipped",
    "4051": "Sc",
    "4052": " minister",
    "4053": " birth",
    "4054": "90",
    "4055": " whom",
    "4056": " beat",
    "4057": " marriage",
    "4058": " adop",
    "4059": " Chicago",
    "4060": " jump",
    "4061": "dom",
    "4062": " propos",
    "4063": " print",
    "4064": "aked",
    "4065": "SA",
    "4066": "500",
    "4067": " scen",
    "4068": " Germany",
    "4069": " adding",
    "4070": "mark",
    "4071": "que",
    "4072": " Scott",
    "4073": " street",
    "4074": " qual",
    "4075": " Bre",
    "4076": "ING",
    "4077": " insurance",
    "4078": "inger",
    "4079": " Ber",
    "4080": " trou",
    "4081": " AP",
    "4082": " Arab",
    "4083": "ags",
    "4084": " beg",
    "4085": " assault",
    "4086": " revealed",
    "4087": " leaving",
    "4088": " Most",
    "4089": " rank",
    "4090": " ensure",
    "4091": " willing",
    "4092": "70",
    "4093": " uns",
    "4094": " According",
    "4095": " arrested",
    "4096": " 2006",
    "4097": "roid",
    "4098": "mittee",
    "4099": " Hillary",
    "4100": " section",
    "4101": " Inte",
    "4102": " fat",
    "4103": " credit",
    "4104": " brief",
    "4105": " ir",
    "4106": " appl",
    "4107": "www",
    "4108": ".â",
    "4109": " unc",
    "4110": " determin",
    "4111": " records",
    "4112": " mostly",
    "4113": "upp",
    "4114": "uman",
    "4115": " enforce",
    "4116": " Trans",
    "4117": " wat",
    "4118": " freedom",
    "4119": " Oh",
    "4120": " station",
    "4121": " behavior",
    "4122": " authorities",
    "4123": "â,",
    "4124": " cry",
    "4125": "OU",
    "4126": " mount",
    "4127": " Health",
    "4128": " Alex",
    "4129": " massive",
    "4130": " temper",
    "4131": "aby",
    "4132": " miles",
    "4133": "EL",
    "4134": " absolute",
    "4135": " produce",
    "4136": "istry",
    "4137": " Mat",
    "4138": " actual",
    "4139": " pattern",
    "4140": " concerns",
    "4141": "aste",
    "4142": " enem",
    "4143": " tend",
    "4144": " benefit",
    "4145": " wild",
    "4146": "pri",
    "4147": " values",
    "4148": " >",
    "4149": " England",
    "4150": " Mo",
    "4151": " born",
    "4152": "acing",
    "4153": " drink",
    "4154": " application",
    "4155": "alse",
    "4156": "pen",
    "4157": " commer",
    "4158": "Here",
    "4159": " posted",
    "4160": " Johnson",
    "4161": "orial",
    "4162": " offers",
    "4163": " celebr",
    "4164": " advoc",
    "4165": " Cr",
    "4166": " whatever",
    "4167": " Let",
    "4168": " plant",
    "4169": "cience",
    "4170": " Port",
    "4171": "cher",
    "4172": " mechan",
    "4173": "ribution",
    "4174": " runs",
    "4175": " male",
    "4176": " Secret",
    "4177": " weekend",
    "4178": "no",
    "4179": "gen",
    "4180": "100",
    "4181": " feeling",
    "4182": " picture",
    "4183": " produced",
    "4184": " choose",
    "4185": " kick",
    "4186": " independent",
    "4187": "rian",
    "4188": " train",
    "4189": " Mag",
    "4190": " Well",
    "4191": "soft",
    "4192": " learned",
    "4193": " theory",
    "4194": " belief",
    "4195": " showing",
    "4196": " dire",
    "4197": "ription",
    "4198": "Image",
    "4199": " Why",
    "4200": "uries",
    "4201": " weight",
    "4202": " mer",
    "4203": "uild",
    "4204": " critical",
    "4205": " coverage",
    "4206": "Bl",
    "4207": " lawy",
    "4208": "outhern",
    "4209": " teac",
    "4210": " images",
    "4211": " dollars",
    "4212": " enter",
    "4213": " debt",
    "4214": "Ð¸",
    "4215": " negoti",
    "4216": " cars",
    "4217": " adult",
    "4218": " Press",
    "4219": "33",
    "4220": " legislation",
    "4221": "arliam",
    "4222": " mur",
    "4223": " initial",
    "4224": " Sam",
    "4225": " residents",
    "4226": " Western",
    "4227": " Ham",
    "4228": " strategy",
    "4229": " occas",
    "4230": " judge",
    "4231": "rav",
    "4232": " EU",
    "4233": " proposed",
    "4234": " novel",
    "4235": "estic",
    "4236": " lose",
    "4237": " mission",
    "4238": " NFL",
    "4239": " dream",
    "4240": " Law",
    "4241": " condition",
    "4242": " Wall",
    "4243": "ram",
    "4244": " detect",
    "4245": " digital",
    "4246": "ented",
    "4247": "Pro",
    "4248": " Get",
    "4249": "orthern",
    "4250": " France",
    "4251": "icial",
    "4252": " influence",
    "4253": " etc",
    "4254": " advantage",
    "4255": "ties",
    "4256": " daily",
    "4257": " establish",
    "4258": "bert",
    "4259": "ada",
    "4260": " restrict",
    "4261": "mine",
    "4262": " devices",
    "4263": " protest",
    "4264": "ords",
    "4265": " Our",
    "4266": "cell",
    "4267": " brand",
    "4268": " confirmed",
    "4269": " operations",
    "4270": " Phil",
    "4271": "arliament",
    "4272": "illing",
    "4273": " responsible",
    "4274": " replace",
    "4275": "ugg",
    "4276": " camera",
    "4277": " cru",
    "4278": "ghan",
    "4279": " bur",
    "4280": " solution",
    "4281": " chem",
    "4282": "BS",
    "4283": " vill",
    "4284": " learning",
    "4285": " Committee",
    "4286": " provides",
    "4287": " charged",
    "4288": "http",
    "4289": " Stud",
    "4290": " effective",
    "4291": " map",
    "4292": " asking",
    "4293": "ae",
    "4294": "icians",
    "4295": "oms",
    "4296": " People",
    "4297": "However",
    "4298": " opening",
    "4299": " explained",
    "4300": " Mike",
    "4301": " highest",
    "4302": " chair",
    "4303": "Ex",
    "4304": "rial",
    "4305": "These",
    "4306": " generally",
    "4307": " basis",
    "4308": " =>",
    "4309": " trial",
    "4310": " hundreds",
    "4311": " 31",
    "4312": " agreed",
    "4313": " opinion",
    "4314": " install",
    "4315": "umn",
    "4316": "ocr",
    "4317": " types",
    "4318": "Ñ",
    "4319": "point",
    "4320": " announce",
    "4321": "azing",
    "4322": "za",
    "4323": "iller",
    "4324": " worse",
    "4325": " interested",
    "4326": " Lab",
    "4327": "ears",
    "4328": " defend",
    "4329": " Mil",
    "4330": " heavy",
    "4331": " Great",
    "4332": " communities",
    "4333": " electric",
    "4334": " 35",
    "4335": "rate",
    "4336": " Mal",
    "4337": " partners",
    "4338": " easier",
    "4339": " Ro",
    "4340": "iling",
    "4341": " negative",
    "4342": " reject",
    "4343": " ge",
    "4344": " Bit",
    "4345": "Con",
    "4346": " onto",
    "4347": " disease",
    "4348": " victory",
    "4349": " associated",
    "4350": " Francis",
    "4351": "ipe",
    "4352": " border",
    "4353": "rig",
    "4354": " Ter",
    "4355": " limit",
    "4356": " bottom",
    "4357": " Justice",
    "4358": " television",
    "4359": " putting",
    "4360": "ront",
    "4361": "ortunately",
    "4362": " understanding",
    "4363": " Found",
    "4364": " double",
    "4365": " housing",
    "4366": " rat",
    "4367": " marijuana",
    "4368": " hero",
    "4369": "omas",
    "4370": "ading",
    "4371": "coming",
    "4372": " earth",
    "4373": "44",
    "4374": " becomes",
    "4375": " fresh",
    "4376": " accused",
    "4377": " Korea",
    "4378": " Bush",
    "4379": " episode",
    "4380": " Office",
    "4381": " sleep",
    "4382": "ography",
    "4383": "ios",
    "4384": " core",
    "4385": "Get",
    "4386": " internet",
    "4387": " memory",
    "4388": " Div",
    "4389": "icip",
    "4390": "witch",
    "4391": " becoming",
    "4392": "rey",
    "4393": " bed",
    "4394": " controvers",
    "4395": " gay",
    "4396": " frame",
    "4397": " PC",
    "4398": "ste",
    "4399": " solid",
    "4400": " opposition",
    "4401": " Jim",
    "4402": " scientists",
    "4403": " millions",
    "4404": "IL",
    "4405": " strik",
    "4406": "level",
    "4407": " Because",
    "4408": " wealth",
    "4409": " reduce",
    "4410": " investment",
    "4411": " defe",
    "4412": " Other",
    "4413": " Los",
    "4414": " location",
    "4415": "win",
    "4416": " extremely",
    "4417": " competition",
    "4418": " Liber",
    "4419": "cont",
    "4420": " thus",
    "4421": " nine",
    "4422": "iliar",
    "4423": " winning",
    "4424": " labor",
    "4425": " surround",
    "4426": " Islamic",
    "4427": " Canadian",
    "4428": " opened",
    "4429": " tick",
    "4430": " served",
    "4431": "andom",
    "4432": "scrib",
    "4433": "ih",
    "4434": " 90",
    "4435": " incred",
    "4436": " Que",
    "4437": "vest",
    "4438": "ours",
    "4439": " mobile",
    "4440": " assum",
    "4441": "akistan",
    "4442": " join",
    "4443": " Many",
    "4444": "iful",
    "4445": "olf",
    "4446": " destroy",
    "4447": "oly",
    "4448": " audience",
    "4449": "irgin",
    "4450": "GB",
    "4451": " machine",
    "4452": " north",
    "4453": "icrosoft",
    "4454": " active",
    "4455": " supporters",
    "4456": " max",
    "4457": " 00",
    "4458": "32",
    "4459": " separate",
    "4460": "well",
    "4461": "36",
    "4462": " issued",
    "4463": " achieve",
    "4464": "iation",
    "4465": "vention",
    "4466": " restaur",
    "4467": " ded",
    "4468": "known",
    "4469": " shared",
    "4470": " drugs",
    "4471": " resist",
    "4472": " Institute",
    "4473": "â¢",
    "4474": "FC",
    "4475": " explain",
    "4476": " decade",
    "4477": " illegal",
    "4478": " harm",
    "4479": "ius",
    "4480": " purpose",
    "4481": " faith",
    "4482": " watching",
    "4483": " spoke",
    "4484": " sites",
    "4485": "ady",
    "4486": " UN",
    "4487": " 70",
    "4488": " Mod",
    "4489": " south",
    "4490": " Jones",
    "4491": " views",
    "4492": " Hall",
    "4493": "lished",
    "4494": " department",
    "4495": " comfort",
    "4496": "istics",
    "4497": " 80",
    "4498": "lant",
    "4499": " church",
    "4500": "aks",
    "4501": " Del",
    "4502": "igrants",
    "4503": " ship",
    "4504": " ran",
    "4505": "edy",
    "4506": " Commission",
    "4507": " management",
    "4508": "ouston",
    "4509": " Mad",
    "4510": " Windows",
    "4511": "works",
    "4512": "acity",
    "4513": " Since",
    "4514": "imb",
    "4515": "ici",
    "4516": "â",
    "4517": "ario",
    "4518": " existing",
    "4519": " Security",
    "4520": " professional",
    "4521": " floor",
    "4522": " Uk",
    "4523": " transport",
    "4524": " aspect",
    "4525": " Robert",
    "4526": " doubt",
    "4527": " Miss",
    "4528": "ulf",
    "4529": " serve",
    "4530": " purs",
    "4531": " Palest",
    "4532": " FBI",
    "4533": " Add",
    "4534": " background",
    "4535": "asy",
    "4536": " returned",
    "4537": " finding",
    "4538": "aran",
    "4539": " neighbor",
    "4540": " spl",
    "4541": "ey",
    "4542": " cash",
    "4543": " Chris",
    "4544": "atically",
    "4545": "NN",
    "4546": "inate",
    "4547": "azon",
    "4548": " generation",
    "4549": " trend",
    "4550": " hearing",
    "4551": "spe",
    "4552": "resp",
    "4553": " kid",
    "4554": " leadership",
    "4555": " Art",
    "4556": " Angeles",
    "4557": "Americ",
    "4558": "lands",
    "4559": " unlike",
    "4560": "going",
    "4561": " transfer",
    "4562": " plays",
    "4563": " categ",
    "4564": "house",
    "4565": "ctors",
    "4566": " surface",
    "4567": " definitely",
    "4568": " concerned",
    "4569": " witness",
    "4570": " driving",
    "4571": " Afghan",
    "4572": " structure",
    "4573": "ait",
    "4574": " documents",
    "4575": " argument",
    "4576": " injury",
    "4577": "annel",
    "4578": "Ñ",
    "4579": " guard",
    "4580": " launched",
    "4581": "DA",
    "4582": " sports",
    "4583": "PS",
    "4584": " Your",
    "4585": " load",
    "4586": " dangerous",
    "4587": " bomb",
    "4588": " Like",
    "4589": " African",
    "4590": "odes",
    "4591": " cards",
    "4592": "rick",
    "4593": " farm",
    "4594": "udd",
    "4595": "Mr",
    "4596": " teach",
    "4597": " vs",
    "4598": " afford",
    "4599": " san",
    "4600": " fuel",
    "4601": " Sup",
    "4602": "ampionship",
    "4603": " Big",
    "4604": "icy",
    "4605": " decisions",
    "4606": " Sanders",
    "4607": "zen",
    "4608": "met",
    "4609": " discovered",
    "4610": " coal",
    "4611": "eah",
    "4612": " vehicle",
    "4613": "which",
    "4614": "ulated",
    "4615": " caught",
    "4616": " Rom",
    "4617": "38",
    "4618": " ;",
    "4619": " Dist",
    "4620": " micro",
    "4621": " Commun",
    "4622": " items",
    "4623": " appeal",
    "4624": " sun",
    "4625": "eline",
    "4626": " committee",
    "4627": " direction",
    "4628": " blue",
    "4629": "!!",
    "4630": " photo",
    "4631": " telling",
    "4632": " que",
    "4633": " nor",
    "4634": " murder",
    "4635": " testing",
    "4636": " Church",
    "4637": "anted",
    "4638": " Africa",
    "4639": " holding",
    "4640": "OL",
    "4641": "inct",
    "4642": "ference",
    "4643": " unit",
    "4644": " largely",
    "4645": "ibrary",
    "4646": " supported",
    "4647": " traffic",
    "4648": " react",
    "4649": "orrow",
    "4650": " wel",
    "4651": " Rock",
    "4652": " notice",
    "4653": " amb",
    "4654": " Wil",
    "4655": "rd",
    "4656": "andon",
    "4657": " closed",
    "4658": "oyal",
    "4659": " repeated",
    "4660": " daughter",
    "4661": " candidates",
    "4662": " suggested",
    "4663": " Bank",
    "4664": "rad",
    "4665": "but",
    "4666": " measures",
    "4667": " Mexico",
    "4668": " radio",
    "4669": "49",
    "4670": " worst",
    "4671": " Jewish",
    "4672": "serv",
    "4673": " context",
    "4674": " believes",
    "4675": " die",
    "4676": " scale",
    "4677": " conservative",
    "4678": "lor",
    "4679": " Inc",
    "4680": "agn",
    "4681": "75",
    "4682": " Louis",
    "4683": " commercial",
    "4684": " Att",
    "4685": " tools",
    "4686": "iest",
    "4687": " Carol",
    "4688": " girls",
    "4689": " notes",
    "4690": " allowing",
    "4691": " planet",
    "4692": " Tre",
    "4693": " Sl",
    "4694": " smaller",
    "4695": " Ir",
    "4696": " Cap",
    "4697": " older",
    "4698": " sett",
    "4699": " Pre",
    "4700": " THE",
    "4701": "mail",
    "4702": " victims",
    "4703": " entirely",
    "4704": "phone",
    "4705": "ander",
    "4706": " strength",
    "4707": " animals",
    "4708": "enses",
    "4709": " Ac",
    "4710": "overy",
    "4711": " waiting",
    "4712": " Pakistan",
    "4713": "equ",
    "4714": " graph",
    "4715": " exerc",
    "4716": "PA",
    "4717": " compar",
    "4718": "hem",
    "4719": " interests",
    "4720": " ur",
    "4721": " deliver",
    "4722": " requires",
    "4723": "Ñ",
    "4724": " guess",
    "4725": "ï¼",
    "4726": " survey",
    "4727": " rout",
    "4728": " Are",
    "4729": " raise",
    "4730": " der",
    "4731": "igan",
    "4732": " Over",
    "4733": "how",
    "4734": "izes",
    "4735": "itable",
    "4736": " activities",
    "4737": "Our",
    "4738": " eat",
    "4739": " Association",
    "4740": " fourth",
    "4741": "season",
    "4742": " mentioned",
    "4743": " Game",
    "4744": " 195",
    "4745": " businesses",
    "4746": " 127",
    "4747": " hack",
    "4748": " false",
    "4749": " Ty",
    "4750": " cook",
    "4751": "owl",
    "4752": " length",
    "4753": "isf",
    "4754": "!â",
    "4755": " task",
    "4756": " consequ",
    "4757": "tery",
    "4758": " cancer",
    "4759": " truly",
    "4760": " instance",
    "4761": " trip",
    "4762": " joined",
    "4763": " Ukrain",
    "4764": " Direct",
    "4765": " species",
    "4766": " attend",
    "4767": "nel",
    "4768": " stated",
    "4769": " Fore",
    "4770": " Ev",
    "4771": " hair",
    "4772": "do",
    "4773": "48",
    "4774": " Kh",
    "4775": " placed",
    "4776": " managed",
    "4777": "night",
    "4778": "inter",
    "4779": "ception",
    "4780": " Instead",
    "4781": "hens",
    "4782": " please",
    "4783": " enforcement",
    "4784": "anging",
    "4785": " annual",
    "4786": " Houston",
    "4787": " models",
    "4788": "iter",
    "4789": " exchange",
    "4790": " Supreme",
    "4791": " Jeff",
    "4792": "kins",
    "4793": " focused",
    "4794": " Ver",
    "4795": " driver",
    "4796": " rough",
    "4797": "oted",
    "4798": " strateg",
    "4799": " pet",
    "4800": " Jose",
    "4801": " removed",
    "4802": " Army",
    "4803": " Jes",
    "4804": "aren",
    "4805": " stopped",
    "4806": "itt",
    "4807": " accur",
    "4808": " Pri",
    "4809": " Japanese",
    "4810": " //",
    "4811": " gain",
    "4812": " planning",
    "4813": " Fin",
    "4814": "cknow",
    "4815": "ulate",
    "4816": " mental",
    "4817": "range",
    "4818": " Mer",
    "4819": "lig",
    "4820": " assess",
    "4821": "ossible",
    "4822": "ighter",
    "4823": " initi",
    "4824": " hus",
    "4825": " Sil",
    "4826": " Jud",
    "4827": " phil",
    "4828": "semb",
    "4829": " stock",
    "4830": "icon",
    "4831": "lege",
    "4832": " ice",
    "4833": " GOP",
    "4834": " spokesman",
    "4835": "onto",
    "4836": "EM",
    "4837": "ocracy",
    "4838": "ructure",
    "4839": " established",
    "4840": " failure",
    "4841": " conversation",
    "4842": " hasn",
    "4843": " beer",
    "4844": " bul",
    "4845": " catch",
    "4846": " contain",
    "4847": "outs",
    "4848": " setting",
    "4849": " missing",
    "4850": " 2005",
    "4851": "â",
    "4852": "uct",
    "4853": "anda",
    "4854": "CH",
    "4855": " committed",
    "4856": "More",
    "4857": " recommend",
    "4858": " defensive",
    "4859": " Rub",
    "4860": " CEO",
    "4861": " arrived",
    "4862": " fant",
    "4863": " offensive",
    "4864": "azine",
    "4865": "37",
    "4866": " appropri",
    "4867": " Pet",
    "4868": "itz",
    "4869": " providing",
    "4870": " download",
    "4871": "ancy",
    "4872": " conclud",
    "4873": "uke",
    "4874": "NA",
    "4875": " sch",
    "4876": " presence",
    "4877": " tells",
    "4878": " introduced",
    "4879": " Although",
    "4880": " 2018",
    "4881": "ronic",
    "4882": " taxes",
    "4883": "hi",
    "4884": " tough",
    "4885": "ano",
    "4886": "Trump",
    "4887": " sequ",
    "4888": "wing",
    "4889": "Read",
    "4890": " familiar",
    "4891": " hate",
    "4892": " construction",
    "4893": "uzz",
    "4894": "place",
    "4895": " newsp",
    "4896": " killing",
    "4897": " finished",
    "4898": " Britain",
    "4899": " useful",
    "4900": " univers",
    "4901": " partner",
    "4902": "isation",
    "4903": " obvious",
    "4904": "cks",
    "4905": " protection",
    "4906": "ribute",
    "4907": "awn",
    "4908": " tim",
    "4909": "stream",
    "4910": "uters",
    "4911": " circum",
    "4912": " Yes",
    "4913": "tained",
    "4914": "real",
    "4915": " exclus",
    "4916": " sust",
    "4917": " keeping",
    "4918": "gers",
    "4919": " gender",
    "4920": " window",
    "4921": " update",
    "4922": " aggress",
    "4923": " Group",
    "4924": " justice",
    "4925": " identity",
    "4926": "RA",
    "4927": " veter",
    "4928": " Fox",
    "4929": " discussion",
    "4930": " stick",
    "4931": " relatively",
    "4932": " suggests",
    "4933": "olly",
    "4934": " Virgin",
    "4935": " seconds",
    "4936": "itutional",
    "4937": "hedul",
    "4938": " otherwise",
    "4939": " Tim",
    "4940": ",'",
    "4941": " acknow",
    "4942": " Nor",
    "4943": "ource",
    "4944": "odies",
    "4945": " Thomas",
    "4946": " cuts",
    "4947": "what",
    "4948": " Israeli",
    "4949": " emerg",
    "4950": "la",
    "4951": "formation",
    "4952": " skills",
    "4953": "apped",
    "4954": " refere",
    "4955": " abuse",
    "4956": "ka",
    "4957": " transl",
    "4958": " Microsoft",
    "4959": " Service",
    "4960": " amazing",
    "4961": " homes",
    "4962": " click",
    "4963": " Leg",
    "4964": "ola",
    "4965": "dden",
    "4966": " Char",
    "4967": " thanks",
    "4968": " speaking",
    "4969": "vis",
    "4970": " therefore",
    "4971": "anned",
    "4972": "aded",
    "4973": " organizations",
    "4974": " connection",
    "4975": " supply",
    "4976": "HL",
    "4977": " prefer",
    "4978": " union",
    "4979": " identified",
    "4980": " healthy",
    "4981": " depend",
    "4982": " Richard",
    "4983": " units",
    "4984": "Ã¡",
    "4985": " Ryan",
    "4986": " Photo",
    "4987": " wish",
    "4988": " decide",
    "4989": " Prof",
    "4990": " 45",
    "4991": "vant",
    "4992": "ocal",
    "4993": "ym",
    "4994": " server",
    "4995": " possibly",
    "4996": "onym",
    "4997": " bigger",
    "4998": "rees",
    "4999": " sides",
    "5000": " developers",
    "5001": " elements",
    "5002": "Ð¾Ð",
    "5003": "ups",
    "5004": "prof",
    "5005": "ga",
    "5006": " photos",
    "5007": "with",
    "5008": "AA",
    "5009": " award",
    "5010": " yards",
    "5011": " pair",
    "5012": " operation",
    "5013": "agues",
    "5014": " occup",
    "5015": "47",
    "5016": "isted",
    "5017": " Const",
    "5018": " solar",
    "5019": " Research",
    "5020": "bre",
    "5021": " Joe",
    "5022": " Central",
    "5023": " slightly",
    "5024": " files",
    "5025": "ansion",
    "5026": " feels",
    "5027": " Sub",
    "5028": "gl",
    "5029": "ancing",
    "5030": "ynam",
    "5031": "ologies",
    "5032": "eless",
    "5033": " 2000",
    "5034": " Mars",
    "5035": " religion",
    "5036": " paying",
    "5037": " none",
    "5038": " steps",
    "5039": "makers",
    "5040": " sudden",
    "5041": " remind",
    "5042": " figures",
    "5043": "Photo",
    "5044": " dropped",
    "5045": "osure",
    "5046": " owner",
    "5047": " cells",
    "5048": " Team",
    "5049": "Why",
    "5050": "arks",
    "5051": " tweet",
    "5052": "mas",
    "5053": "SP",
    "5054": " starts",
    "5055": "Last",
    "5056": "icide",
    "5057": " worry",
    "5058": " Sur",
    "5059": " Mos",
    "5060": " Jon",
    "5061": "ucky",
    "5062": " prospect",
    "5063": " Medic",
    "5064": " 32",
    "5065": "olit",
    "5066": " Images",
    "5067": " conflict",
    "5068": " domestic",
    "5069": "01",
    "5070": " academ",
    "5071": " sport",
    "5072": " collection",
    "5073": "verse",
    "5074": "related",
    "5075": "osen",
    "5076": " multi",
    "5077": " Frank",
    "5078": "ula",
    "5079": " refuge",
    "5080": " Two",
    "5081": " error",
    "5082": " Secretary",
    "5083": "oston",
    "5084": "imal",
    "5085": " helping",
    "5086": " variety",
    "5087": " princ",
    "5088": "39",
    "5089": " scientific",
    "5090": " degree",
    "5091": " changing",
    "5092": " Sal",
    "5093": " Government",
    "5094": " strike",
    "5095": "gar",
    "5096": "den",
    "5097": "aven",
    "5098": "roud",
    "5099": " Prime",
    "5100": " pit",
    "5101": "ava",
    "5102": " immigration",
    "5103": " fellow",
    "5104": "kin",
    "5105": " pil",
    "5106": " mere",
    "5107": " carried",
    "5108": "Pl",
    "5109": "gypt",
    "5110": "idering",
    "5111": " Their",
    "5112": " Gree",
    "5113": "pm",
    "5114": " spirit",
    "5115": " planned",
    "5116": " fif",
    "5117": "Go",
    "5118": " commission",
    "5119": " husband",
    "5120": " Den",
    "5121": " Ari",
    "5122": "46",
    "5123": " ath",
    "5124": "].",
    "5125": " Web",
    "5126": " Mur",
    "5127": " Mont",
    "5128": " Android",
    "5129": " accounts",
    "5130": " heat",
    "5131": " equip",
    "5132": " balance",
    "5133": " happening",
    "5134": " appre",
    "5135": " Det",
    "5136": "ipping",
    "5137": " River",
    "5138": " Out",
    "5139": " filed",
    "5140": "sen",
    "5141": " professor",
    "5142": " Inter",
    "5143": "erous",
    "5144": " apparently",
    "5145": " Mary",
    "5146": "acks",
    "5147": " regarding",
    "5148": " weak",
    "5149": " honest",
    "5150": " Last",
    "5151": " Toronto",
    "5152": " spect",
    "5153": "rency",
    "5154": " Australian",
    "5155": " Palestin",
    "5156": " banks",
    "5157": " Martin",
    "5158": " Pac",
    "5159": "ulner",
    "5160": " applications",
    "5161": " Division",
    "5162": " increasingly",
    "5163": " mut",
    "5164": " talks",
    "5165": " Time",
    "5166": "ket",
    "5167": " funds",
    "5168": " schedul",
    "5169": " vehicles",
    "5170": " tests",
    "5171": " teen",
    "5172": "itect",
    "5173": " roll",
    "5174": "Des",
    "5175": " Lee",
    "5176": "uate",
    "5177": " corner",
    "5178": " army",
    "5179": "ashed",
    "5180": "ht",
    "5181": "coh",
    "5182": " deploy",
    "5183": " Also",
    "5184": " markets",
    "5185": " Camp",
    "5186": " Atlant",
    "5187": "bour",
    "5188": "Le",
    "5189": " Amazon",
    "5190": "cious",
    "5191": " philos",
    "5192": "ocol",
    "5193": " lived",
    "5194": " ST",
    "5195": " 36",
    "5196": "hand",
    "5197": " fle",
    "5198": " rich",
    "5199": " Good",
    "5200": "31",
    "5201": " hyp",
    "5202": " Foundation",
    "5203": " twice",
    "5204": " skin",
    "5205": "icted",
    "5206": "ias",
    "5207": " Cath",
    "5208": "illa",
    "5209": "gn",
    "5210": "endment",
    "5211": " troops",
    "5212": " tack",
    "5213": "isher",
    "5214": " apply",
    "5215": " Us",
    "5216": " vast",
    "5217": " soldiers",
    "5218": " regist",
    "5219": " occurred",
    "5220": " Power",
    "5221": "rastructure",
    "5222": "ros",
    "5223": "alls",
    "5224": " environmental",
    "5225": " tight",
    "5226": " standing",
    "5227": " sounds",
    "5228": " Dec",
    "5229": " flight",
    "5230": " helps",
    "5231": " developing",
    "5232": "----------------",
    "5233": " sitting",
    "5234": " â ",
    "5235": "apers",
    "5236": " scr",
    "5237": " fol",
    "5238": " streets",
    "5239": " losing",
    "5240": "ayer",
    "5241": " clin",
    "5242": "Ab",
    "5243": " shall",
    "5244": " innov",
    "5245": "uster",
    "5246": " writer",
    "5247": " vision",
    "5248": " turns",
    "5249": "oute",
    "5250": "ader",
    "5251": " random",
    "5252": "under",
    "5253": "ores",
    "5254": " Bur",
    "5255": "ania",
    "5256": ".â<|",
    "5257": " imagine",
    "5258": " impossible",
    "5259": " Fire",
    "5260": " experts",
    "5261": "IV",
    "5262": " neighborhood",
    "5263": "ION",
    "5264": " ultimately",
    "5265": " potentially",
    "5266": "UT",
    "5267": " interact",
    "5268": " Ã",
    "5269": " convention",
    "5270": " authority",
    "5271": " attorney",
    "5272": " ì",
    "5273": "ils",
    "5274": " MP",
    "5275": " greatest",
    "5276": " Those",
    "5277": "\":",
    "5278": " Under",
    "5279": " humans",
    "5280": " ce",
    "5281": "oving",
    "5282": " beautiful",
    "5283": " absolutely",
    "5284": "anche",
    "5285": "55",
    "5286": " standards",
    "5287": " seeking",
    "5288": " Francisco",
    "5289": " presented",
    "5290": " dat",
    "5291": "run",
    "5292": " pieces",
    "5293": " forms",
    "5294": " faster",
    "5295": "gu",
    "5296": " NBA",
    "5297": "ruit",
    "5298": " expensive",
    "5299": " Put",
    "5300": "From",
    "5301": "oom",
    "5302": " territ",
    "5303": " stars",
    "5304": " refused",
    "5305": "iser",
    "5306": " cold",
    "5307": "ââ",
    "5308": " signs",
    "5309": " operating",
    "5310": " appoint",
    "5311": " capacity",
    "5312": "state",
    "5313": " alternative",
    "5314": " rid",
    "5315": " 2004",
    "5316": " youth",
    "5317": " covered",
    "5318": "ressive",
    "5319": " equipment",
    "5320": "atures",
    "5321": " apart",
    "5322": " brow",
    "5323": " crew",
    "5324": "othes",
    "5325": " Nov",
    "5326": " voted",
    "5327": " Jo",
    "5328": " odd",
    "5329": " possibility",
    "5330": " coast",
    "5331": "och",
    "5332": "!\"",
    "5333": " broken",
    "5334": "adium",
    "5335": "Of",
    "5336": " sea",
    "5337": " script",
    "5338": " Carolina",
    "5339": "abb",
    "5340": " determine",
    "5341": "ashion",
    "5342": " LA",
    "5343": "etic",
    "5344": "fe",
    "5345": " retail",
    "5346": " adjust",
    "5347": " perspect",
    "5348": "Even",
    "5349": " guaran",
    "5350": " elections",
    "5351": " unless",
    "5352": " responsibility",
    "5353": " famous",
    "5354": " settle",
    "5355": " nar",
    "5356": " arms",
    "5357": "ighters",
    "5358": "IP",
    "5359": " seasons",
    "5360": " corporate",
    "5361": " revolution",
    "5362": "idden",
    "5363": " closer",
    "5364": "enced",
    "5365": "Just",
    "5366": " stress",
    "5367": " proposal",
    "5368": " Jackson",
    "5369": " IN",
    "5370": " trail",
    "5371": " internal",
    "5372": "IM",
    "5373": " expressed",
    "5374": "rible",
    "5375": " seat",
    "5376": " din",
    "5377": " Sol",
    "5378": " hurt",
    "5379": " estimated",
    "5380": "ini",
    "5381": " surprise",
    "5382": " Public",
    "5383": " Hy",
    "5384": " College",
    "5385": " animal",
    "5386": "SS",
    "5387": "terday",
    "5388": "03",
    "5389": " Boston",
    "5390": "lets",
    "5391": " pointed",
    "5392": " indeed",
    "5393": "icate",
    "5394": "OW",
    "5395": "()",
    "5396": " percentage",
    "5397": " gar",
    "5398": " Syrian",
    "5399": " carbon",
    "5400": " Williams",
    "5401": " hun",
    "5402": " Guard",
    "5403": "person",
    "5404": " ruling",
    "5405": "ato",
    "5406": " rent",
    "5407": "otic",
    "5408": " conclus",
    "5409": "lymp",
    "5410": "astern",
    "5411": " vulner",
    "5412": " weapon",
    "5413": " appearance",
    "5414": " Bitcoin",
    "5415": " sector",
    "5416": " Bern",
    "5417": "stein",
    "5418": " ton",
    "5419": " Once",
    "5420": " Egypt",
    "5421": " governments",
    "5422": " Journal",
    "5423": " Lat",
    "5424": "phas",
    "5425": " motiv",
    "5426": "urban",
    "5427": " specifically",
    "5428": " factors",
    "5429": " trig",
    "5430": "date",
    "5431": "inte",
    "5432": "TA",
    "5433": " rapid",
    "5434": " expert",
    "5435": " bringing",
    "5436": " District",
    "5437": " distance",
    "5438": " Conserv",
    "5439": " prove",
    "5440": " Daily",
    "5441": "ureau",
    "5442": "34",
    "5443": " agencies",
    "5444": "cean",
    "5445": "edia",
    "5446": " baby",
    "5447": " videos",
    "5448": " insp",
    "5449": " heav",
    "5450": " sale",
    "5451": " located",
    "5452": " herself",
    "5453": "cel",
    "5454": " selling",
    "5455": " Book",
    "5456": "Every",
    "5457": " plenty",
    "5458": " instit",
    "5459": "cohol",
    "5460": " cultural",
    "5461": " intended",
    "5462": "noon",
    "5463": " grew",
    "5464": "ller",
    "5465": "Sp",
    "5466": " infrastructure",
    "5467": " experiment",
    "5468": " Mel",
    "5469": " AM",
    "5470": "road",
    "5471": " agent",
    "5472": "look",
    "5473": " marg",
    "5474": " dim",
    "5475": "Let",
    "5476": " subs",
    "5477": " reaction",
    "5478": "Up",
    "5479": "II",
    "5480": " revenue",
    "5481": " stret",
    "5482": " elim",
    "5483": " jail",
    "5484": " argued",
    "5485": " Virginia",
    "5486": "rier",
    "5487": " maintain",
    "5488": " handle",
    "5489": " determined",
    "5490": "arp",
    "5491": " bought",
    "5492": " Road",
    "5493": " methods",
    "5494": " Tra",
    "5495": " Sant",
    "5496": " offering",
    "5497": " significantly",
    "5498": " fired",
    "5499": " dram",
    "5500": " visual",
    "5501": " Steve",
    "5502": " remained",
    "5503": " flow",
    "5504": " votes",
    "5505": " equal",
    "5506": "CL",
    "5507": " elected",
    "5508": "eder",
    "5509": " 500",
    "5510": " university",
    "5511": "uration",
    "5512": "Ste",
    "5513": " era",
    "5514": "Since",
    "5515": " breat",
    "5516": "anish",
    "5517": "IG",
    "5518": " Middle",
    "5519": "mosp",
    "5520": " satisf",
    "5521": " ast",
    "5522": " Federal",
    "5523": " secure",
    "5524": " finish",
    "5525": " Afghanistan",
    "5526": "lines",
    "5527": " wood",
    "5528": "angers",
    "5529": "uts",
    "5530": "essions",
    "5531": " regime",
    "5532": " consult",
    "5533": "esters",
    "5534": " weren",
    "5535": " wearing",
    "5536": " council",
    "5537": " chemical",
    "5538": " boost",
    "5539": " USA",
    "5540": " criticism",
    "5541": " Step",
    "5542": "orage",
    "5543": " prosecut",
    "5544": " column",
    "5545": " mal",
    "5546": " upgr",
    "5547": " bound",
    "5548": " experienced",
    "5549": " completed",
    "5550": "standing",
    "5551": " positions",
    "5552": "iat",
    "5553": " obviously",
    "5554": " Bet",
    "5555": " remove",
    "5556": " Mass",
    "5557": "TV",
    "5558": " films",
    "5559": " broke",
    "5560": " conducted",
    "5561": " Olymp",
    "5562": "life",
    "5563": " concent",
    "5564": " Bob",
    "5565": " combat",
    "5566": " appreci",
    "5567": " Island",
    "5568": " surprising",
    "5569": " affected",
    "5570": " advance",
    "5571": " cas",
    "5572": "ocking",
    "5573": "obe",
    "5574": "First",
    "5575": "65",
    "5576": " turning",
    "5577": " Please",
    "5578": " Chief",
    "5579": " Social",
    "5580": " involve",
    "5581": "inating",
    "5582": "free",
    "5583": " symb",
    "5584": " quant",
    "5585": " caption",
    "5586": " Ohio",
    "5587": " Any",
    "5588": " differences",
    "5589": " During",
    "5590": "ulations",
    "5591": " tele",
    "5592": " tact",
    "5593": " Space",
    "5594": "tion",
    "5595": " basically",
    "5596": " Wood",
    "5597": "class",
    "5598": " privacy",
    "5599": " switch",
    "5600": " prime",
    "5601": " Ron",
    "5602": "mm",
    "5603": "ellow",
    "5604": " pulled",
    "5605": " recorded",
    "5606": "lyn",
    "5607": " seriously",
    "5608": " passing",
    "5609": "ita",
    "5610": " glass",
    "5611": " Paris",
    "5612": "reens",
    "5613": " shape",
    "5614": " fly",
    "5615": " advert",
    "5616": "pted",
    "5617": " cann",
    "5618": "Ð½",
    "5619": " Sing",
    "5620": " accident",
    "5621": " Free",
    "5622": " treated",
    "5623": "onom",
    "5624": "DP",
    "5625": " Gal",
    "5626": "Do",
    "5627": " remaining",
    "5628": " belong",
    "5629": " rain",
    "5630": " facing",
    "5631": " ends",
    "5632": " reduced",
    "5633": " aircraft",
    "5634": " excited",
    "5635": "05",
    "5636": " spring",
    "5637": " married",
    "5638": " explo",
    "5639": " attempts",
    "5640": " Both",
    "5641": "employ",
    "5642": "yr",
    "5643": "olved",
    "5644": " thank",
    "5645": " widely",
    "5646": " prepared",
    "5647": " Media",
    "5648": "ENT",
    "5649": " plus",
    "5650": " originally",
    "5651": " Haw",
    "5652": " surve",
    "5653": " AN",
    "5654": "ection",
    "5655": " afternoon",
    "5656": "gment",
    "5657": " talked",
    "5658": " opportunities",
    "5659": " bodies",
    "5660": " vir",
    "5661": " collabor",
    "5662": " cloud",
    "5663": "ivered",
    "5664": " suppl",
    "5665": "useum",
    "5666": "Pe",
    "5667": " opposed",
    "5668": " dismiss",
    "5669": "rawn",
    "5670": "aped",
    "5671": " storm",
    "5672": " hopes",
    "5673": " zone",
    "5674": " element",
    "5675": " Color",
    "5676": "ensions",
    "5677": " pages",
    "5678": " considering",
    "5679": "oking",
    "5680": "avor",
    "5681": " supporting",
    "5682": "Ind",
    "5683": "aine",
    "5684": " Fer",
    "5685": "hy",
    "5686": " reference",
    "5687": " minute",
    "5688": " identify",
    "5689": " Rem",
    "5690": " master",
    "5691": "porary",
    "5692": "His",
    "5693": " Rod",
    "5694": "Well",
    "5695": "ã",
    "5696": "Another",
    "5697": " diss",
    "5698": " contrast",
    "5699": " Rel",
    "5700": " proceed",
    "5701": " Who",
    "5702": "ternal",
    "5703": "42",
    "5704": "that",
    "5705": " broadcast",
    "5706": "aniel",
    "5707": " frust",
    "5708": " purchase",
    "5709": " evening",
    "5710": " liberal",
    "5711": " giant",
    "5712": "nam",
    "5713": " Phot",
    "5714": " Blue",
    "5715": " Labour",
    "5716": " Human",
    "5717": "arts",
    "5718": " ske",
    "5719": " optim",
    "5720": " explos",
    "5721": "osite",
    "5722": "erved",
    "5723": "water",
    "5724": "ourney",
    "5725": "anged",
    "5726": " consumers",
    "5727": " lots",
    "5728": " Stan",
    "5729": " 1990",
    "5730": " transition",
    "5731": " leads",
    "5732": " politicians",
    "5733": " listen",
    "5734": " reporters",
    "5735": " shift",
    "5736": " emp",
    "5737": " challenges",
    "5738": "ortion",
    "5739": " denied",
    "5740": " Show",
    "5741": " Science",
    "5742": " Project",
    "5743": " Force",
    "5744": "war",
    "5745": ".\"<|",
    "5746": " Peter",
    "5747": "abilities",
    "5748": "Tube",
    "5749": " ment",
    "5750": "rog",
    "5751": " voting",
    "5752": "ompl",
    "5753": " crimes",
    "5754": " picked",
    "5755": "usiness",
    "5756": "host",
    "5757": "ampion",
    "5758": " craft",
    "5759": " Capt",
    "5760": "top",
    "5761": " struggle",
    "5762": "rie",
    "5763": "oral",
    "5764": " severe",
    "5765": " sem",
    "5766": "aled",
    "5767": " Muslims",
    "5768": "ras",
    "5769": "Ne",
    "5770": " combined",
    "5771": "LS",
    "5772": "pass",
    "5773": " creation",
    "5774": " unable",
    "5775": " faces",
    "5776": " agents",
    "5777": " PM",
    "5778": "ml",
    "5779": " Sher",
    "5780": "urrent",
    "5781": "reland",
    "5782": "aling",
    "5783": " writes",
    "5784": " proud",
    "5785": "vin",
    "5786": "mates",
    "5787": " playoff",
    "5788": " guns",
    "5789": " declared",
    "5790": " Jesus",
    "5791": " declined",
    "5792": "ruption",
    "5793": " package",
    "5794": " minimum",
    "5795": " Dou",
    "5796": "mond",
    "5797": " NAS",
    "5798": " moral",
    "5799": " factor",
    "5800": " fra",
    "5801": " See",
    "5802": " Cru",
    "5803": "razy",
    "5804": "hered",
    "5805": "],",
    "5806": "Oh",
    "5807": " shouldn",
    "5808": " panel",
    "5809": "respond",
    "5810": " mode",
    "5811": " Michigan",
    "5812": " emergency",
    "5813": " doctor",
    "5814": "64",
    "5815": " id",
    "5816": "nergy",
    "5817": " violent",
    "5818": " thr",
    "5819": "ounded",
    "5820": " matters",
    "5821": " fish",
    "5822": "ownt",
    "5823": " Ok",
    "5824": " suffered",
    "5825": " SC",
    "5826": "ucks",
    "5827": "olt",
    "5828": " quiet",
    "5829": " client",
    "5830": " admitted",
    "5831": "plom",
    "5832": " approved",
    "5833": " 48",
    "5834": " Spr",
    "5835": " Matt",
    "5836": " Andrew",
    "5837": " perspective",
    "5838": " loved",
    "5839": " disappoint",
    "5840": "pet",
    "5841": "asure",
    "5842": " proced",
    "5843": " injured",
    "5844": " crack",
    "5845": "zer",
    "5846": " hol",
    "5847": " flat",
    "5848": " construct",
    "5849": " coff",
    "5850": " Mem",
    "5851": "ributed",
    "5852": "PD",
    "5853": " ordered",
    "5854": " injuries",
    "5855": " copyright",
    "5856": " circumst",
    "5857": " argue",
    "5858": " Turkey",
    "5859": " Rad",
    "5860": " ongoing",
    "5861": "amin",
    "5862": " plants",
    "5863": " Today",
    "5864": " 37",
    "5865": "odd",
    "5866": "Rep",
    "5867": "cons",
    "5868": " delivered",
    "5869": " 38",
    "5870": " quarterback",
    "5871": " CNN",
    "5872": "nell",
    "5873": "care",
    "5874": " Squ",
    "5875": " substant",
    "5876": " franch",
    "5877": " aid",
    "5878": " technical",
    "5879": " Lake",
    "5880": "can",
    "5881": " trouble",
    "5882": " Open",
    "5883": "isters",
    "5884": "aints",
    "5885": " responded",
    "5886": " Scot",
    "5887": " apps",
    "5888": " Tal",
    "5889": " walking",
    "5890": " missed",
    "5891": " Jul",
    "5892": "lo",
    "5893": "evin",
    "5894": " numerous",
    "5895": " appropriate",
    "5896": " typically",
    "5897": " mir",
    "5898": " lob",
    "5899": " burn",
    "5900": " activists",
    "5901": " calcul",
    "5902": "Am",
    "5903": " readers",
    "5904": " bot",
    "5905": " stands",
    "5906": " renew",
    "5907": "De",
    "5908": "acr",
    "5909": " tourn",
    "5910": " emphas",
    "5911": " delay",
    "5912": " suit",
    "5913": "enture",
    "5914": " discrim",
    "5915": " Yet",
    "5916": "ban",
    "5917": " waste",
    "5918": " updates",
    "5919": " capable",
    "5920": " talent",
    "5921": " thoughts",
    "5922": " Saud",
    "5923": "Over",
    "5924": " confidence",
    "5925": " RE",
    "5926": " offense",
    "5927": " architect",
    "5928": "02",
    "5929": "ogue",
    "5930": " forg",
    "5931": "idel",
    "5932": " newspaper",
    "5933": "allas",
    "5934": " tradition",
    "5935": " enemy",
    "5936": "col",
    "5937": "oty",
    "5938": "amm",
    "5939": " mort",
    "5940": " institutions",
    "5941": ",â",
    "5942": " subsequ",
    "5943": " split",
    "5944": " materials",
    "5945": " Charl",
    "5946": " findings",
    "5947": " depart",
    "5948": " AT",
    "5949": "Ã³",
    "5950": " gra",
    "5951": " excell",
    "5952": " sets",
    "5953": " confident",
    "5954": "iger",
    "5955": " reportedly",
    "5956": " listed",
    "5957": "hab",
    "5958": " secretary",
    "5959": "inet",
    "5960": "elly",
    "5961": " rot",
    "5962": "oves",
    "5963": " connected",
    "5964": " advice",
    "5965": "LE",
    "5966": "dule",
    "5967": " increases",
    "5968": " bull",
    "5969": " BBC",
    "5970": "%)",
    "5971": " weather",
    "5972": " Harry",
    "5973": "ilty",
    "5974": " session",
    "5975": " default",
    "5976": " editor",
    "5977": " accompl",
    "5978": "edd",
    "5979": "unte",
    "5980": " everybody",
    "5981": " Rev",
    "5982": " Seattle",
    "5983": " Grand",
    "5984": "ishes",
    "5985": "ilit",
    "5986": " Christmas",
    "5987": "rid",
    "5988": " pitch",
    "5989": " explains",
    "5990": " Ma",
    "5991": "li",
    "5992": "asp",
    "5993": " filled",
    "5994": " alcohol",
    "5995": " forget",
    "5996": "During",
    "5997": " expansion",
    "5998": " Week",
    "5999": " tun",
    "6000": " protests",
    "6001": " centre",
    "6002": " atmosp",
    "6003": "athan",
    "6004": " rail",
    "6005": " entertain",
    "6006": " transform",
    "6007": " Georg",
    "6008": " Follow",
    "6009": "oken",
    "6010": " tech",
    "6011": "43",
    "6012": " Techn",
    "6013": "called",
    "6014": " threats",
    "6015": " practices",
    "6016": "Ã­",
    "6017": "abled",
    "6018": " hell",
    "6019": " Av",
    "6020": "ache",
    "6021": " messages",
    "6022": " route",
    "6023": " encoun",
    "6024": " iPh",
    "6025": " eval",
    "6026": " Sum",
    "6027": " flood",
    "6028": " Ireland",
    "6029": "41",
    "6030": " prin",
    "6031": " mand",
    "6032": "illy",
    "6033": "arden",
    "6034": "apter",
    "6035": " statements",
    "6036": "razil",
    "6037": " Read",
    "6038": " Sign",
    "6039": "adow",
    "6040": "PR",
    "6041": " wear",
    "6042": " Penn",
    "6043": " Director",
    "6044": "uls",
    "6045": "American",
    "6046": " Roman",
    "6047": "uations",
    "6048": "inals",
    "6049": " 2001",
    "6050": "95",
    "6051": " Columb",
    "6052": " buildings",
    "6053": " behavi",
    "6054": "sex",
    "6055": "enda",
    "6056": " patient",
    "6057": " effectively",
    "6058": " publicly",
    "6059": " household",
    "6060": "apping",
    "6061": " virtual",
    "6062": " reporting",
    "6063": " Gen",
    "6064": " basket",
    "6065": "unction",
    "6066": " Jews",
    "6067": " advanced",
    "6068": "eds",
    "6069": " sam",
    "6070": " coord",
    "6071": " discl",
    "6072": " valid",
    "6073": " sad",
    "6074": " powers",
    "6075": "resents",
    "6076": " af",
    "6077": " bond",
    "6078": "=\"",
    "6079": " cooper",
    "6080": "ooth",
    "6081": "OD",
    "6082": " sym",
    "6083": " confirm",
    "6084": " label",
    "6085": " Fe",
    "6086": "inent",
    "6087": " facts",
    "6088": " Prem",
    "6089": "Other",
    "6090": " announcement",
    "6091": " rein",
    "6092": " lawsuit",
    "6093": " Lib",
    "6094": " incor",
    "6095": " examples",
    "6096": "estival",
    "6097": " 2003",
    "6098": "uous",
    "6099": "sts",
    "6100": "issions",
    "6101": " scheduled",
    "6102": " nations",
    "6103": "rant",
    "6104": "Follow",
    "6105": "App",
    "6106": " emails",
    "6107": " spons",
    "6108": " legit",
    "6109": "oen",
    "6110": " realize",
    "6111": " auth",
    "6112": " Ukraine",
    "6113": "ala",
    "6114": " edge",
    "6115": " Lin",
    "6116": " initially",
    "6117": " Rights",
    "6118": "amental",
    "6119": " causes",
    "6120": "aza",
    "6121": "arry",
    "6122": "rum",
    "6123": "ionally",
    "6124": " rising",
    "6125": "enger",
    "6126": " objects",
    "6127": " networks",
    "6128": " pictures",
    "6129": " Sports",
    "6130": " Year",
    "6131": "iot",
    "6132": " stores",
    "6133": " instruct",
    "6134": "ERS",
    "6135": " neither",
    "6136": "cos",
    "6137": "MA",
    "6138": " athlet",
    "6139": "anes",
    "6140": "Many",
    "6141": " allegations",
    "6142": "agers",
    "6143": "TC",
    "6144": " governor",
    "6145": " classes",
    "6146": " manufacture",
    "6147": " sought",
    "6148": " follows",
    "6149": " perman",
    "6150": " trib",
    "6151": " Hen",
    "6152": " IP",
    "6153": " ourselves",
    "6154": " deaths",
    "6155": " exercise",
    "6156": " van",
    "6157": " magazine",
    "6158": "bur",
    "6159": " suc",
    "6160": " highlight",
    "6161": " ISIS",
    "6162": "oma",
    "6163": " surprised",
    "6164": " boys",
    "6165": " applied",
    "6166": " remark",
    "6167": " entry",
    "6168": " restaurant",
    "6169": " accepted",
    "6170": "essor",
    "6171": "esome",
    "6172": "ansas",
    "6173": " 49",
    "6174": " terrorist",
    "6175": " bright",
    "6176": "zona",
    "6177": "alty",
    "6178": " Watch",
    "6179": " younger",
    "6180": " combination",
    "6181": " armed",
    "6182": " movies",
    "6183": " approx",
    "6184": "uy",
    "6185": "ocratic",
    "6186": "ador",
    "6187": " dynam",
    "6188": " bike",
    "6189": " philosoph",
    "6190": " Ill",
    "6191": " shots",
    "6192": "orders",
    "6193": "Res",
    "6194": " lawyer",
    "6195": " native",
    "6196": " Wal",
    "6197": " YouTube",
    "6198": " Barack",
    "6199": "game",
    "6200": " pool",
    "6201": " myster",
    "6202": " explan",
    "6203": " Second",
    "6204": "scribe",
    "6205": "long",
    "6206": " fort",
    "6207": " enh",
    "6208": "writ",
    "6209": " radical",
    "6210": " begins",
    "6211": "arters",
    "6212": " Bat",
    "6213": "aylor",
    "6214": " nearby",
    "6215": " discussed",
    "6216": " 33",
    "6217": " decre",
    "6218": " vari",
    "6219": " debut",
    "6220": " OF",
    "6221": " gather",
    "6222": " breaking",
    "6223": "hetic",
    "6224": " contains",
    "6225": " Image",
    "6226": "Most",
    "6227": " grab",
    "6228": " Work",
    "6229": " Back",
    "6230": " yesterday",
    "6231": " 300",
    "6232": "Although",
    "6233": " prohib",
    "6234": " Club",
    "6235": "icing",
    "6236": "57",
    "6237": " pure",
    "6238": " bag",
    "6239": " articles",
    "6240": " Only",
    "6241": "usal",
    "6242": " alt",
    "6243": "ette",
    "6244": "ulture",
    "6245": " heads",
    "6246": " diagn",
    "6247": " button",
    "6248": " withd",
    "6249": " totally",
    "6250": " flo",
    "6251": " fashion",
    "6252": " ing",
    "6253": "Spe",
    "6254": ",[",
    "6255": " colleagues",
    "6256": " Another",
    "6257": "west",
    "6258": " performed",
    "6259": "orry",
    "6260": "law",
    "6261": "irty",
    "6262": " linked",
    "6263": " desire",
    "6264": " kit",
    "6265": " bare",
    "6266": "====",
    "6267": " artist",
    "6268": " Catholic",
    "6269": "stood",
    "6270": " democracy",
    "6271": "ali",
    "6272": " thinks",
    "6273": " TO",
    "6274": " pra",
    "6275": " motor",
    "6276": " essentially",
    "6277": " moves",
    "6278": "66",
    "6279": " receiving",
    "6280": " anywhere",
    "6281": " diplom",
    "6282": " schol",
    "6283": " Aff",
    "6284": " warned",
    "6285": " System",
    "6286": " tow",
    "6287": " Vict",
    "6288": "UR",
    "6289": " temperature",
    "6290": " necessarily",
    "6291": " metal",
    "6292": " leaves",
    "6293": " adds",
    "6294": "iami",
    "6295": "erry",
    "6296": " vacc",
    "6297": "phy",
    "6298": " succeed",
    "6299": " experiences",
    "6300": " consistent",
    "6301": " Old",
    "6302": "ideo",
    "6303": " roughly",
    "6304": " entered",
    "6305": " Plan",
    "6306": " warning",
    "6307": " abandon",
    "6308": "onna",
    "6309": " faced",
    "6310": " Walk",
    "6311": "ollywood",
    "6312": "ician",
    "6313": "acle",
    "6314": " improved",
    "6315": " historical",
    "6316": " existence",
    "6317": " Cle",
    "6318": "whel",
    "6319": "greg",
    "6320": "See",
    "6321": " parliament",
    "6322": " blow",
    "6323": " Men",
    "6324": "FP",
    "6325": " resolution",
    "6326": " journey",
    "6327": " dial",
    "6328": " immigrants",
    "6329": " 34",
    "6330": "En",
    "6331": " links",
    "6332": " holds",
    "6333": " sav",
    "6334": " represents",
    "6335": " ride",
    "6336": " guilty",
    "6337": " hat",
    "6338": " Brazil",
    "6339": "twitter",
    "6340": "May",
    "6341": " stream",
    "6342": " input",
    "6343": " warm",
    "6344": " Valley",
    "6345": " Develop",
    "6346": " 1980",
    "6347": "ship",
    "6348": "awa",
    "6349": " phen",
    "6350": " Kenn",
    "6351": " pushed",
    "6352": "Qu",
    "6353": " harder",
    "6354": " fewer",
    "6355": "icious",
    "6356": " cert",
    "6357": "fortunately",
    "6358": " Life",
    "6359": " Board",
    "6360": " targets",
    "6361": " Ken",
    "6362": "Cont",
    "6363": " consequences",
    "6364": " Whe",
    "6365": " fairly",
    "6366": " creative",
    "6367": " targeted",
    "6368": " returns",
    "6369": " Ms",
    "6370": " island",
    "6371": " correspond",
    "6372": " classic",
    "6373": "oked",
    "6374": "Then",
    "6375": "08",
    "6376": " rally",
    "6377": " doctors",
    "6378": " Cub",
    "6379": "rich",
    "6380": " stood",
    "6381": " joint",
    "6382": " brings",
    "6383": " currency",
    "6384": " Hist",
    "6385": "xy",
    "6386": "Yes",
    "6387": "68",
    "6388": " Die",
    "6389": " bon",
    "6390": "ua",
    "6391": " row",
    "6392": " lie",
    "6393": "rip",
    "6394": " Exp",
    "6395": "iques",
    "6396": " investors",
    "6397": " Romney",
    "6398": " knowing",
    "6399": " Miller",
    "6400": "',",
    "6401": "Can",
    "6402": " manner",
    "6403": " intention",
    "6404": "word",
    "6405": " Asia",
    "6406": " wins",
    "6407": " vice",
    "6408": " heavily",
    "6409": " fill",
    "6410": "TS",
    "6411": " strange",
    "6412": " scored",
    "6413": "ocation",
    "6414": " Games",
    "6415": " shop",
    "6416": " facility",
    "6417": " datab",
    "6418": " storage",
    "6419": " relationships",
    "6420": " batt",
    "6421": " west",
    "6422": " hoping",
    "6423": "cho",
    "6424": "ulous",
    "6425": "born",
    "6426": " earned",
    "6427": " subsid",
    "6428": " formed",
    "6429": " hardware",
    "6430": " squad",
    "6431": " replaced",
    "6432": " customer",
    "6433": "orse",
    "6434": "ami",
    "6435": "ORE",
    "6436": " nav",
    "6437": " hotel",
    "6438": " Each",
    "6439": " drivers",
    "6440": " depth",
    "6441": " allegedly",
    "6442": " Arizona",
    "6443": "oster",
    "6444": " egg",
    "6445": " reput",
    "6446": " Carl",
    "6447": "Pol",
    "6448": " tree",
    "6449": " favour",
    "6450": " Swed",
    "6451": " consumer",
    "6452": " circumstances",
    "6453": " Saudi",
    "6454": "igure",
    "6455": "andal",
    "6456": " moments",
    "6457": " mouth",
    "6458": " hur",
    "6459": " Its",
    "6460": "sembly",
    "6461": "oming",
    "6462": " experim",
    "6463": "ensus",
    "6464": " sister",
    "6465": " rum",
    "6466": " closely",
    "6467": " Vol",
    "6468": "LA",
    "6469": "78",
    "6470": " shif",
    "6471": " infl",
    "6472": " importance",
    "6473": " ancient",
    "6474": "ologist",
    "6475": "foot",
    "6476": " Maybe",
    "6477": "illance",
    "6478": " protesters",
    "6479": " frequently",
    "6480": " Sky",
    "6481": " opposite",
    "6482": " Fil",
    "6483": " unlikely",
    "6484": " Van",
    "6485": " plot",
    "6486": " functions",
    "6487": " cab",
    "6488": "ittle",
    "6489": " excellent",
    "6490": " defined",
    "6491": " attacked",
    "6492": " Colorado",
    "6493": " unus",
    "6494": " Gar",
    "6495": "Donald",
    "6496": " lock",
    "6497": " https",
    "6498": " dedicated",
    "6499": " Eric",
    "6500": "mes",
    "6501": "acc",
    "6502": " library",
    "6503": " emotional",
    "6504": " Pacific",
    "6505": " somewhat",
    "6506": " matches",
    "6507": " Sar",
    "6508": " Irish",
    "6509": " mainstream",
    "6510": "def",
    "6511": " Jr",
    "6512": "pret",
    "6513": "erences",
    "6514": " fraud",
    "6515": " regulations",
    "6516": " crazy",
    "6517": " songs",
    "6518": " sharing",
    "6519": " chain",
    "6520": "llect",
    "6521": " monit",
    "6522": " Top",
    "6523": "Add",
    "6524": " neut",
    "6525": " flag",
    "6526": " cheap",
    "6527": "duc",
    "6528": " watched",
    "6529": " Elect",
    "6530": "you",
    "6531": " extent",
    "6532": " marketing",
    "6533": " eating",
    "6534": " Wild",
    "6535": " Energy",
    "6536": " pushing",
    "6537": " universe",
    "6538": " essential",
    "6539": " 75",
    "6540": "rac",
    "6541": "rence",
    "6542": " wal",
    "6543": " observ",
    "6544": " versions",
    "6545": " pled",
    "6546": " fundamental",
    "6547": " Polit",
    "6548": " Ol",
    "6549": "chen",
    "6550": " carrying",
    "6551": " decline",
    "6552": " alongside",
    "6553": " acknowled",
    "6554": " Putin",
    "6555": " intent",
    "6556": " diet",
    "6557": " congress",
    "6558": " plane",
    "6559": "ockey",
    "6560": "ii",
    "6561": " wave",
    "6562": "iana",
    "6563": "People",
    "6564": "apse",
    "6565": " signing",
    "6566": " grown",
    "6567": " walked",
    "6568": " err",
    "6569": " contest",
    "6570": " iPhone",
    "6571": " Ell",
    "6572": "hus",
    "6573": " Davis",
    "6574": " unknown",
    "6575": " resident",
    "6576": " sees",
    "6577": " lies",
    "6578": " detailed",
    "6579": "ati",
    "6580": " square",
    "6581": " discover",
    "6582": " Mount",
    "6583": "erves",
    "6584": " newslet",
    "6585": "roit",
    "6586": "ican",
    "6587": " Class",
    "6588": " cycle",
    "6589": " causing",
    "6590": "uated",
    "6591": "ometimes",
    "6592": "iveness",
    "6593": "irds",
    "6594": " embr",
    "6595": " describe",
    "6596": " buying",
    "6597": " Ital",
    "6598": " Dallas",
    "6599": "kel",
    "6600": " GM",
    "6601": " zero",
    "6602": " east",
    "6603": "esc",
    "6604": " schedule",
    "6605": " empt",
    "6606": " Sov",
    "6607": "ographic",
    "6608": " medic",
    "6609": " distribution",
    "6610": " adm",
    "6611": " Brook",
    "6612": " 65",
    "6613": "Two",
    "6614": " trick",
    "6615": " evolution",
    "6616": " NY",
    "6617": " owned",
    "6618": "raham",
    "6619": " commitment",
    "6620": "woman",
    "6621": "iciency",
    "6622": " suicide",
    "6623": " laugh",
    "6624": " resc",
    "6625": " motion",
    "6626": " isol",
    "6627": " channel",
    "6628": "ensity",
    "6629": "aze",
    "6630": " realized",
    "6631": " industrial",
    "6632": " adults",
    "6633": " acts",
    "6634": " franchise",
    "6635": "asts",
    "6636": "IR",
    "6637": " deals",
    "6638": " Miami",
    "6639": " Dan",
    "6640": "va",
    "6641": "IF",
    "6642": " promise",
    "6643": " Card",
    "6644": " Young",
    "6645": "alo",
    "6646": " hall",
    "6647": "opy",
    "6648": "CE",
    "6649": " simpl",
    "6650": " reward",
    "6651": " opponent",
    "6652": " featured",
    "6653": " Mot",
    "6654": "ora",
    "6655": "efully",
    "6656": " volunte",
    "6657": " sending",
    "6658": " Charles",
    "6659": "Ð»",
    "6660": "ugh",
    "6661": "acking",
    "6662": " downt",
    "6663": " Hol",
    "6664": "chers",
    "6665": "amily",
    "6666": " struck",
    "6667": " liqu",
    "6668": " Wat",
    "6669": " chairman",
    "6670": " posts",
    "6671": " meat",
    "6672": "GG",
    "6673": " sky",
    "6674": " relevant",
    "6675": " Brad",
    "6676": " defeat",
    "6677": " Korean",
    "6678": "77",
    "6679": "utch",
    "6680": "ayers",
    "6681": " teachers",
    "6682": "tering",
    "6683": " inspired",
    "6684": " conver",
    "6685": " tiny",
    "6686": " manage",
    "6687": " dealing",
    "6688": " observed",
    "6689": " controls",
    "6690": "sole",
    "6691": " snow",
    "6692": " controversial",
    "6693": " comfortable",
    "6694": " Wilson",
    "6695": " Ram",
    "6696": "acter",
    "6697": " upcoming",
    "6698": " illust",
    "6699": " battery",
    "6700": " Cast",
    "6701": " Far",
    "6702": "nic",
    "6703": " immediate",
    "6704": " narrow",
    "6705": " Again",
    "6706": " exciting",
    "6707": " urg",
    "6708": "bel",
    "6709": "BO",
    "6710": " tested",
    "6711": " competitive",
    "6712": "uable",
    "6713": "omin",
    "6714": "boy",
    "6715": " wake",
    "6716": " kinds",
    "6717": " properties",
    "6718": "****",
    "6719": " Kim",
    "6720": " Aut",
    "6721": "ns",
    "6722": " passion",
    "6723": " suffering",
    "6724": " Lord",
    "6725": " sick",
    "6726": " expression",
    "6727": " efficient",
    "6728": " attempted",
    "6729": " Dev",
    "6730": " flu",
    "6731": " Hel",
    "6732": " Cy",
    "6733": " termin",
    "6734": " authors",
    "6735": " Right",
    "6736": "ocket",
    "6737": "inson",
    "6738": "Or",
    "6739": " tom",
    "6740": " bug",
    "6741": " Fre",
    "6742": " symbol",
    "6743": " anyway",
    "6744": "rome",
    "6745": "obile",
    "6746": "ppo",
    "6747": "ether",
    "6748": " northern",
    "6749": " explore",
    "6750": " View",
    "6751": " Ann",
    "6752": "ko",
    "6753": "Despite",
    "6754": " repeatedly",
    "6755": "DS",
    "6756": " Kevin",
    "6757": "oration",
    "6758": " selected",
    "6759": " deeply",
    "6760": "kay",
    "6761": "........",
    "6762": " usual",
    "6763": " emissions",
    "6764": " Long",
    "6765": "Rel",
    "6766": " sentence",
    "6767": " crash",
    "6768": " aside",
    "6769": " Services",
    "6770": " sho",
    "6771": " agenda",
    "6772": " NHL",
    "6773": " domin",
    "6774": " acting",
    "6775": " Defense",
    "6776": " literally",
    "6777": " guide",
    "6778": "olve",
    "6779": " unemploy",
    "6780": " referred",
    "6781": " output",
    "6782": " opponents",
    "6783": " sustain",
    "6784": " studio",
    "6785": " regional",
    "6786": "sters",
    "6787": " fixed",
    "6788": " cere",
    "6789": "ceived",
    "6790": " volume",
    "6791": " boss",
    "6792": "iki",
    "6793": "Ob",
    "6794": " string",
    "6795": "â.",
    "6796": " dry",
    "6797": "rong",
    "6798": " mechanism",
    "6799": " involving",
    "6800": "Ã¤",
    "6801": " fighters",
    "6802": " fifth",
    "6803": "gery",
    "6804": " overwhel",
    "6805": "rations",
    "6806": " surrounding",
    "6807": " rape",
    "6808": "04",
    "6809": " sample",
    "6810": " cutting",
    "6811": " Women",
    "6812": " disag",
    "6813": " destroyed",
    "6814": " actor",
    "6815": "ipl",
    "6816": "burg",
    "6817": "John",
    "6818": " impressive",
    "6819": "verty",
    "6820": "amber",
    "6821": " Jersey",
    "6822": "anges",
    "6823": "umber",
    "6824": " oblig",
    "6825": " noticed",
    "6826": " letters",
    "6827": " Inf",
    "6828": "Like",
    "6829": " updated",
    "6830": " champion",
    "6831": " Stephen",
    "6832": " transp",
    "6833": "88",
    "6834": " ring",
    "6835": " personally",
    "6836": " Econom",
    "6837": "xual",
    "6838": " sweet",
    "6839": " shel",
    "6840": " assume",
    "6841": " skill",
    "6842": " poverty",
    "6843": " Boy",
    "6844": "imp",
    "6845": " uncle",
    "6846": " remote",
    "6847": " mine",
    "6848": " assets",
    "6849": "redit",
    "6850": " worried",
    "6851": " latter",
    "6852": " Down",
    "6853": "dro",
    "6854": "CA",
    "6855": " gap",
    "6856": "azi",
    "6857": " puts",
    "6858": " format",
    "6859": "otes",
    "6860": "endo",
    "6861": " southern",
    "6862": " folks",
    "6863": " technologies",
    "6864": " suddenly",
    "6865": " Society",
    "6866": "osis",
    "6867": "luding",
    "6868": " Georgia",
    "6869": " urban",
    "6870": "sea",
    "6871": "ordan",
    "6872": "bar",
    "6873": " alive",
    "6874": "rete",
    "6875": " rub",
    "6876": "rive",
    "6877": "GBT",
    "6878": " slowly",
    "6879": " Enter",
    "6880": " Foot",
    "6881": " pip",
    "6882": " maximum",
    "6883": " god",
    "6884": " Contin",
    "6885": "ââ",
    "6886": "weight",
    "6887": " participants",
    "6888": " dress",
    "6889": " Light",
    "6890": " Cam",
    "6891": "agan",
    "6892": " instru",
    "6893": " Thanks",
    "6894": " pregn",
    "6895": "ivery",
    "6896": " alg",
    "6897": " promote",
    "6898": " 1970",
    "6899": "cow",
    "6900": " ped",
    "6901": " protected",
    "6902": "inem",
    "6903": "09",
    "6904": " fees",
    "6905": " 39",
    "6906": " recognize",
    "6907": " license",
    "6908": " baseball",
    "6909": "atell",
    "6910": " selection",
    "6911": " aspects",
    "6912": "gender",
    "6913": " profit",
    "6914": " moder",
    "6915": " division",
    "6916": " artists",
    "6917": " Di",
    "6918": " resistance",
    "6919": " constant",
    "6920": " blame",
    "6921": "PU",
    "6922": " height",
    "6923": " Way",
    "6924": " Dam",
    "6925": " therap",
    "6926": " Anth",
    "6927": "lls",
    "6928": " scheme",
    "6929": "otten",
    "6930": " TH",
    "6931": "asks",
    "6932": " wage",
    "6933": " drag",
    "6934": " condem",
    "6935": " serving",
    "6936": " reporter",
    "6937": " neighb",
    "6938": " understood",
    "6939": " escape",
    "6940": " coffee",
    "6941": " Labor",
    "6942": "ingu",
    "6943": " syn",
    "6944": " requirements",
    "6945": "friend",
    "6946": "raid",
    "6947": "fire",
    "6948": " claiming",
    "6949": " Max",
    "6950": " winter",
    "6951": " arguments",
    "6952": " narr",
    "6953": " forth",
    "6954": " Bas",
    "6955": "zy",
    "6956": " Hollywood",
    "6957": "regon",
    "6958": " clients",
    "6959": "igg",
    "6960": "alle",
    "6961": " confront",
    "6962": "zens",
    "6963": "onymous",
    "6964": "Te",
    "6965": " somehow",
    "6966": " Cruz",
    "6967": "uilding",
    "6968": "________________",
    "6969": " imper",
    "6970": " ideal",
    "6971": "onsin",
    "6972": " ID",
    "6973": " Er",
    "6974": " nomine",
    "6975": " goods",
    "6976": " Company",
    "6977": "ta",
    "6978": "67",
    "6979": " merely",
    "6980": "aug",
    "6981": "OC",
    "6982": "isconsin",
    "6983": " sympt",
    "6984": " phenomen",
    "6985": "ura",
    "6986": " Network",
    "6987": "adel",
    "6988": " Nic",
    "6989": "athy",
    "6990": " falling",
    "6991": " category",
    "6992": " ble",
    "6993": " allies",
    "6994": "eping",
    "6995": " properly",
    "6996": " obtained",
    "6997": " communication",
    "6998": " unp",
    "6999": " PR",
    "7000": "Dr",
    "7001": " retire",
    "7002": " honor",
    "7003": " gaming",
    "7004": " basketball",
    "7005": " femin",
    "7006": "asters",
    "7007": " employee",
    "7008": "post",
    "7009": "enders",
    "7010": " locations",
    "7011": " finds",
    "7012": " Kn",
    "7013": " Î",
    "7014": "Per",
    "7015": " somebody",
    "7016": " mistake",
    "7017": " teacher",
    "7018": " evil",
    "7019": " gro",
    "7020": " electricity",
    "7021": " critics",
    "7022": " worldwide",
    "7023": "ciples",
    "7024": " chose",
    "7025": " Bowl",
    "7026": "Sec",
    "7027": " www",
    "7028": " gang",
    "7029": " risks",
    "7030": " approval",
    "7031": " Spanish",
    "7032": "sl",
    "7033": " Southern",
    "7034": "mun",
    "7035": "lights",
    "7036": " somewhere",
    "7037": " promised",
    "7038": " phase",
    "7039": "rison",
    "7040": " wid",
    "7041": " Taylor",
    "7042": "igation",
    "7043": " Supp",
    "7044": " Gall",
    "7045": " informed",
    "7046": " Py",
    "7047": "¬",
    "7048": " desper",
    "7049": " controlled",
    "7050": " campus",
    "7051": " newly",
    "7052": " choices",
    "7053": "iform",
    "7054": " Hot",
    "7055": "isan",
    "7056": " dollar",
    "7057": " \\",
    "7058": " Viet",
    "7059": " Daniel",
    "7060": "owa",
    "7061": "onic",
    "7062": "itarian",
    "7063": " welcome",
    "7064": " plastic",
    "7065": " payments",
    "7066": " chosen",
    "7067": " Despite",
    "7068": " 2002",
    "7069": " truck",
    "7070": " surveillance",
    "7071": " definition",
    "7072": " DC",
    "7073": "%,",
    "7074": " theme",
    "7075": " Moore",
    "7076": "cers",
    "7077": " Palestinian",
    "7078": " Joseph",
    "7079": "owed",
    "7080": " encourage",
    "7081": "teen",
    "7082": " stretch",
    "7083": " Scotland",
    "7084": "ixt",
    "7085": " Java",
    "7086": "dis",
    "7087": "Any",
    "7088": " seats",
    "7089": "VER",
    "7090": " Detroit",
    "7091": " Where",
    "7092": " Wars",
    "7093": " Land",
    "7094": "ja",
    "7095": " tournament",
    "7096": " territory",
    "7097": " tort",
    "7098": " perfectly",
    "7099": " directed",
    "7100": " payment",
    "7101": " Author",
    "7102": " developer",
    "7103": " Ruby",
    "7104": "oric",
    "7105": " sight",
    "7106": " exposed",
    "7107": "unning",
    "7108": " officially",
    "7109": " Soviet",
    "7110": " Home",
    "7111": "pool",
    "7112": "////",
    "7113": " equival",
    "7114": " clar",
    "7115": " captured",
    "7116": "sell",
    "7117": "Police",
    "7118": " precise",
    "7119": "acked",
    "7120": " supports",
    "7121": " gotten",
    "7122": "ums",
    "7123": " village",
    "7124": " terrorism",
    "7125": " mayor",
    "7126": " fuck",
    "7127": " Child",
    "7128": " orders",
    "7129": " incredible",
    "7130": " extended",
    "7131": " constit",
    "7132": "nesota",
    "7133": "ls",
    "7134": " amounts",
    "7135": " stim",
    "7136": " facilities",
    "7137": " config",
    "7138": " Tit",
    "7139": "owered",
    "7140": "Man",
    "7141": " reasonable",
    "7142": " likes",
    "7143": " intellect",
    "7144": " aggressive",
    "7145": " adapt",
    "7146": " stronger",
    "7147": " rejected",
    "7148": " Ford",
    "7149": "aire",
    "7150": "EW",
    "7151": " phr",
    "7152": " drawn",
    "7153": " returning",
    "7154": " fold",
    "7155": " Nations",
    "7156": "there",
    "7157": " trading",
    "7158": " threatened",
    "7159": " pilot",
    "7160": " dogs",
    "7161": "rage",
    "7162": "orted",
    "7163": "star",
    "7164": "inations",
    "7165": " typical",
    "7166": " routine",
    "7167": " incl",
    "7168": " Stand",
    "7169": "rary",
    "7170": "earing",
    "7171": " cart",
    "7172": " NASA",
    "7173": "Ã¶",
    "7174": " cyber",
    "7175": " bear",
    "7176": " anymore",
    "7177": " Night",
    "7178": "celer",
    "7179": " Best",
    "7180": "test",
    "7181": " bunch",
    "7182": " Rog",
    "7183": " icon",
    "7184": " western",
    "7185": " Tw",
    "7186": " Nation",
    "7187": " Ep",
    "7188": "lv",
    "7189": "300",
    "7190": " tied",
    "7191": " du",
    "7192": "aun",
    "7193": " primarily",
    "7194": "rell",
    "7195": " ruled",
    "7196": " bench",
    "7197": " wire",
    "7198": " apartment",
    "7199": " Italy",
    "7200": " exhib",
    "7201": " comparison",
    "7202": " Jun",
    "7203": "iler",
    "7204": " Camer",
    "7205": "EP",
    "7206": " journalists",
    "7207": " communications",
    "7208": " Agency",
    "7209": " resulting",
    "7210": " polls",
    "7211": " Four",
    "7212": " Academ",
    "7213": " regions",
    "7214": " purposes",
    "7215": " capture",
    "7216": " Premier",
    "7217": " Dun",
    "7218": " taste",
    "7219": " pic",
    "7220": " estimates",
    "7221": "bell",
    "7222": " topic",
    "7223": " titles",
    "7224": " strongly",
    "7225": " regularly",
    "7226": " conclusion",
    "7227": " approximately",
    "7228": " Thank",
    "7229": " pal",
    "7230": " Organ",
    "7231": "iner",
    "7232": "98",
    "7233": " flying",
    "7234": "cles",
    "7235": " sole",
    "7236": "Also",
    "7237": " winner",
    "7238": " nobody",
    "7239": " Asian",
    "7240": "ept",
    "7241": " thread",
    "7242": " requests",
    "7243": " proof",
    "7244": " extensive",
    "7245": " concluded",
    "7246": " ads",
    "7247": " refugees",
    "7248": " pace",
    "7249": "style",
    "7250": " Special",
    "7251": " Test",
    "7252": "ao",
    "7253": " fasc",
    "7254": " extract",
    "7255": " drinking",
    "7256": " Administ",
    "7257": "iro",
    "7258": " Love",
    "7259": "mod",
    "7260": " veteran",
    "7261": " bid",
    "7262": " anx",
    "7263": " admit",
    "7264": " Bull",
    "7265": "wart",
    "7266": " collected",
    "7267": "Ã¼",
    "7268": " weird",
    "7269": " punish",
    "7270": "raph",
    "7271": "active",
    "7272": " assistance",
    "7273": "hent",
    "7274": " enthus",
    "7275": " driven",
    "7276": " continuing",
    "7277": " atmosphere",
    "7278": "wan",
    "7279": "icket",
    "7280": "da",
    "7281": " founder",
    "7282": " fields",
    "7283": " crucial",
    "7284": " Foreign",
    "7285": " meetings",
    "7286": " Attorney",
    "7287": "etary",
    "7288": " profile",
    "7289": " param",
    "7290": " Os",
    "7291": " Adam",
    "7292": "ilarly",
    "7293": "fall",
    "7294": " province",
    "7295": " inqu",
    "7296": "Because",
    "7297": "otal",
    "7298": "anchester",
    "7299": " Lu",
    "7300": " adopted",
    "7301": "rating",
    "7302": "pected",
    "7303": " houses",
    "7304": " Tem",
    "7305": "igen",
    "7306": " exists",
    "7307": " comprom",
    "7308": "lder",
    "7309": " sanctions",
    "7310": " HT",
    "7311": "uan",
    "7312": " awesome",
    "7313": " Sk",
    "7314": "hips",
    "7315": " sand",
    "7316": " distinct",
    "7317": "ï¿",
    "7318": " habit",
    "7319": " academic",
    "7320": "elect",
    "7321": " plug",
    "7322": " estate",
    "7323": " ending",
    "7324": " defence",
    "7325": " Hit",
    "7326": " programming",
    "7327": " granted",
    "7328": " Wisconsin",
    "7329": "PG",
    "7330": "\\\\",
    "7331": "58",
    "7332": "!<|",
    "7333": " viewers",
    "7334": " explanation",
    "7335": " Championship",
    "7336": " penalty",
    "7337": "aed",
    "7338": " reputation",
    "7339": " rival",
    "7340": " End",
    "7341": "icken",
    "7342": "axy",
    "7343": " limits",
    "7344": " decent",
    "7345": " deleg",
    "7346": " constantly",
    "7347": " spin",
    "7348": " bitcoin",
    "7349": "orne",
    "7350": "inding",
    "7351": " racial",
    "7352": " proved",
    "7353": " flex",
    "7354": " kil",
    "7355": " demands",
    "7356": " database",
    "7357": " writers",
    "7358": " ties",
    "7359": " abortion",
    "7360": " 42",
    "7361": " patterns",
    "7362": " empty",
    "7363": "LC",
    "7364": " signal",
    "7365": " brut",
    "7366": " advertising",
    "7367": " Tony",
    "7368": "essed",
    "7369": "cript",
    "7370": "abis",
    "7371": " duty",
    "7372": " Steven",
    "7373": " Kurd",
    "7374": " innoc",
    "7375": " assert",
    "7376": " Ut",
    "7377": " Arch",
    "7378": " ($",
    "7379": " iron",
    "7380": "vy",
    "7381": " tall",
    "7382": " contributed",
    "7383": " Eastern",
    "7384": "olis",
    "7385": "actions",
    "7386": "Today",
    "7387": " answers",
    "7388": " Spain",
    "7389": " Hun",
    "7390": " FC",
    "7391": "icer",
    "7392": "NC",
    "7393": "esy",
    "7394": " feedback",
    "7395": "oft",
    "7396": "06",
    "7397": " warming",
    "7398": " Mic",
    "7399": "ifications",
    "7400": " rig",
    "7401": " parking",
    "7402": " loan",
    "7403": "anny",
    "7404": " entit",
    "7405": "lers",
    "7406": "\":\"",
    "7407": " hits",
    "7408": " Though",
    "7409": " pod",
    "7410": " coalition",
    "7411": " 47",
    "7412": "apes",
    "7413": "agram",
    "7414": " taught",
    "7415": " complicated",
    "7416": " component",
    "7417": "Rec",
    "7418": " cable",
    "7419": " upper",
    "7420": " solutions",
    "7421": " Moscow",
    "7422": "LL",
    "7423": "07",
    "7424": " techniques",
    "7425": " personnel",
    "7426": "54",
    "7427": " terrible",
    "7428": " passes",
    "7429": " degrees",
    "7430": "HS",
    "7431": " incredibly",
    "7432": " Oregon",
    "7433": " Minnesota",
    "7434": " 150",
    "7435": " brew",
    "7436": " Id",
    "7437": " Brian",
    "7438": " AR",
    "7439": " mail",
    "7440": " contem",
    "7441": "Com",
    "7442": " inspir",
    "7443": " define",
    "7444": " counsel",
    "7445": "ifer",
    "7446": "ena",
    "7447": " components",
    "7448": " NBC",
    "7449": "rett",
    "7450": "ogan",
    "7451": " survive",
    "7452": " stead",
    "7453": " fought",
    "7454": " Ont",
    "7455": " outcome",
    "7456": " stuck",
    "7457": " rating",
    "7458": " hadn",
    "7459": "stone",
    "7460": " roster",
    "7461": " excess",
    "7462": "ibilities",
    "7463": "Getty",
    "7464": "Ah",
    "7465": " Josh",
    "7466": " Avenue",
    "7467": " paint",
    "7468": "Once",
    "7469": " surgery",
    "7470": " manip",
    "7471": " raising",
    "7472": " magic",
    "7473": " LGBT",
    "7474": " soul",
    "7475": " narrative",
    "7476": " marked",
    "7477": " Victor",
    "7478": " Turn",
    "7479": " worker",
    "7480": " championship",
    "7481": " Balt",
    "7482": "mont",
    "7483": " thin",
    "7484": " generate",
    "7485": "pes",
    "7486": "56",
    "7487": "rehens",
    "7488": " situations",
    "7489": " Sea",
    "7490": "log",
    "7491": " neuro",
    "7492": " CIA",
    "7493": " automatically",
    "7494": " principles",
    "7495": " keeps",
    "7496": " engage",
    "7497": " colon",
    "7498": " bom",
    "7499": " Northern",
    "7500": " tracks",
    "7501": " dozen",
    "7502": " Gi",
    "7503": " harass",
    "7504": " conven",
    "7505": " Italian",
    "7506": " Amendment",
    "7507": "fast",
    "7508": " scenes",
    "7509": " organized",
    "7510": " consumption",
    "7511": "sm",
    "7512": "gun",
    "7513": " vulnerable",
    "7514": " represented",
    "7515": " rus",
    "7516": " lawmakers",
    "7517": " bills",
    "7518": " Bell",
    "7519": "â,",
    "7520": " Dark",
    "7521": "bec",
    "7522": " Pan",
    "7523": " 64",
    "7524": "name",
    "7525": " complaint",
    "7526": " Coll",
    "7527": " â",
    "7528": "scape",
    "7529": "inf",
    "7530": "ifies",
    "7531": " enable",
    "7532": " contracts",
    "7533": "ione",
    "7534": " registered",
    "7535": " apolog",
    "7536": " Cat",
    "7537": " unusual",
    "7538": " elsewhere",
    "7539": " browser",
    "7540": " Jordan",
    "7541": " Jason",
    "7542": " Constitution",
    "7543": " mixed",
    "7544": " Cross",
    "7545": " interpret",
    "7546": " climb",
    "7547": " accurate",
    "7548": " hole",
    "7549": " desk",
    "7550": " angry",
    "7551": "ref",
    "7552": " Dar",
    "7553": " Bru",
    "7554": "pan",
    "7555": " successfully",
    "7556": "ker",
    "7557": "ez",
    "7558": " king",
    "7559": " Pay",
    "7560": "Off",
    "7561": " trees",
    "7562": "SL",
    "7563": " Civil",
    "7564": "rint",
    "7565": "osa",
    "7566": "Mean",
    "7567": "Mar",
    "7568": " Ray",
    "7569": " Iowa",
    "7570": " Care",
    "7571": "aturally",
    "7572": " phones",
    "7573": " pin",
    "7574": " fake",
    "7575": " employment",
    "7576": "lock",
    "7577": " cameras",
    "7578": " Fort",
    "7579": " lawyers",
    "7580": " Real",
    "7581": "itors",
    "7582": " feelings",
    "7583": " anticip",
    "7584": " aver",
    "7585": " 2019",
    "7586": "Ñ",
    "7587": "tes",
    "7588": "Fr",
    "7589": " Nick",
    "7590": " Circ",
    "7591": "ima",
    "7592": "era",
    "7593": " conspir",
    "7594": " assistant",
    "7595": "abama",
    "7596": " enjoyed",
    "7597": " Look",
    "7598": " murd",
    "7599": " depending",
    "7600": " Sn",
    "7601": " Oper",
    "7602": " generated",
    "7603": " bes",
    "7604": " 400",
    "7605": " 1999",
    "7606": "orith",
    "7607": " uncertain",
    "7608": " conscious",
    "7609": "phia",
    "7610": " regardless",
    "7611": " possession",
    "7612": "aser",
    "7613": "MP",
    "7614": "Inst",
    "7615": "EA",
    "7616": " clubs",
    "7617": "rates",
    "7618": " historic",
    "7619": " afraid",
    "7620": " extension",
    "7621": " array",
    "7622": " tur",
    "7623": " rarely",
    "7624": " Take",
    "7625": "pat",
    "7626": "96",
    "7627": " obst",
    "7628": " medium",
    "7629": " boot",
    "7630": " Business",
    "7631": " privile",
    "7632": " affili",
    "7633": "irk",
    "7634": "ilipp",
    "7635": " extrem",
    "7636": " aimed",
    "7637": " emerged",
    "7638": " Pen",
    "7639": " Ah",
    "7640": " dict",
    "7641": " accomp",
    "7642": " Mu",
    "7643": " je",
    "7644": " intense",
    "7645": " chances",
    "7646": " bath",
    "7647": " agric",
    "7648": " stations",
    "7649": " installed",
    "7650": " Kelly",
    "7651": "rep",
    "7652": " Zeal",
    "7653": " Henry",
    "7654": " Bry",
    "7655": "car",
    "7656": " ru",
    "7657": " Global",
    "7658": "irms",
    "7659": "cling",
    "7660": "mal",
    "7661": "adelphia",
    "7662": " negotiations",
    "7663": " compens",
    "7664": "orough",
    "7665": "ogether",
    "7666": " subjects",
    "7667": " grant",
    "7668": " finance",
    "7669": " recovery",
    "7670": " grass",
    "7671": "everal",
    "7672": "abil",
    "7673": " sufficient",
    "7674": " profession",
    "7675": " Still",
    "7676": " Reuters",
    "7677": " MS",
    "7678": " Linux",
    "7679": " Before",
    "7680": "mo",
    "7681": "itar",
    "7682": " hidden",
    "7683": " CO",
    "7684": " valuable",
    "7685": " troub",
    "7686": " resulted",
    "7687": "52",
    "7688": " cup",
    "7689": " Sir",
    "7690": " Ash",
    "7691": "Mc",
    "7692": " spark",
    "7693": " infect",
    "7694": " dozens",
    "7695": " Educ",
    "7696": " tank",
    "7697": " river",
    "7698": " â¢",
    "7699": " crypt",
    "7700": " index",
    "7701": " equivalent",
    "7702": " Field",
    "7703": "taining",
    "7704": " visited",
    "7705": " pounds",
    "7706": " Conf",
    "7707": "arsh",
    "7708": " ven",
    "7709": " solve",
    "7710": " downtown",
    "7711": "enth",
    "7712": " manufacturing",
    "7713": " expectations",
    "7714": "iscal",
    "7715": " engaged",
    "7716": " DNA",
    "7717": "izz",
    "7718": "ikes",
    "7719": " liked",
    "7720": " funny",
    "7721": " enemies",
    "7722": " describes",
    "7723": " Turk",
    "7724": " permission",
    "7725": " processes",
    "7726": " cited",
    "7727": "istent",
    "7728": "inity",
    "7729": " courts",
    "7730": " principle",
    "7731": " loud",
    "7732": " Live",
    "7733": " yield",
    "7734": " gall",
    "7735": "59",
    "7736": " enorm",
    "7737": "MS",
    "7738": " satell",
    "7739": " permanent",
    "7740": " elite",
    "7741": " Beach",
    "7742": " relief",
    "7743": " fee",
    "7744": " Christians",
    "7745": "idency",
    "7746": " gonna",
    "7747": " busy",
    "7748": " myth",
    "7749": " attended",
    "7750": "list",
    "7751": "idelines",
    "7752": " roles",
    "7753": "upid",
    "7754": " wing",
    "7755": " mel",
    "7756": " gained",
    "7757": " fault",
    "7758": " explicit",
    "7759": "Meanwhile",
    "7760": " thousand",
    "7761": " blocks",
    "7762": " Vis",
    "7763": " Policy",
    "7764": " chat",
    "7765": " Moh",
    "7766": " CBS",
    "7767": " audio",
    "7768": " Kent",
    "7769": "agg",
    "7770": " shares",
    "7771": " mainly",
    "7772": " chart",
    "7773": "ules",
    "7774": " operate",
    "7775": " compete",
    "7776": "herent",
    "7777": "imore",
    "7778": " CD",
    "7779": " Water",
    "7780": " Fair",
    "7781": "portion",
    "7782": " scoring",
    "7783": " disaster",
    "7784": " behalf",
    "7785": " teaching",
    "7786": " discipl",
    "7787": " deeper",
    "7788": "UN",
    "7789": " ticket",
    "7790": " prominent",
    "7791": " nut",
    "7792": " deck",
    "7793": "UST",
    "7794": " veget",
    "7795": " root",
    "7796": " recip",
    "7797": " comic",
    "7798": " Thus",
    "7799": "oj",
    "7800": "lah",
    "7801": "bal",
    "7802": " indicate",
    "7803": "burgh",
    "7804": " scream",
    "7805": " backed",
    "7806": " 44",
    "7807": "anna",
    "7808": " uncom",
    "7809": " sharp",
    "7810": " saved",
    "7811": " delivery",
    "7812": " Senator",
    "7813": " McG",
    "7814": "viously",
    "7815": " Zealand",
    "7816": " Manchester",
    "7817": " Call",
    "7818": " taxp",
    "7819": " bra",
    "7820": "auc",
    "7821": "Dav",
    "7822": " Pot",
    "7823": " airport",
    "7824": " advis",
    "7825": " uniform",
    "7826": " strikes",
    "7827": " headed",
    "7828": "ads",
    "7829": " reduction",
    "7830": " priority",
    "7831": " engineering",
    "7832": "aska",
    "7833": "CS",
    "7834": " machines",
    "7835": " OS",
    "7836": " Come",
    "7837": "usive",
    "7838": "ulating",
    "7839": " stable",
    "7840": "ML",
    "7841": " websites",
    "7842": "aching",
    "7843": "Us",
    "7844": " Greg",
    "7845": " struggling",
    "7846": " gift",
    "7847": " everywhere",
    "7848": " Food",
    "7849": "rot",
    "7850": "ATE",
    "7851": " thick",
    "7852": " ridic",
    "7853": " creates",
    "7854": "quarters",
    "7855": "ifest",
    "7856": " photograph",
    "7857": " Lew",
    "7858": " Coast",
    "7859": "uine",
    "7860": "ilton",
    "7861": " tag",
    "7862": "thew",
    "7863": "month",
    "7864": "chain",
    "7865": "adi",
    "7866": " illness",
    "7867": " blind",
    "7868": " Diego",
    "7869": " ë",
    "7870": "prise",
    "7871": " poly",
    "7872": " 55",
    "7873": "TH",
    "7874": " Fred",
    "7875": " withdraw",
    "7876": " 46",
    "7877": "",
    "7878": "iel",
    "7879": " wonderful",
    "7880": " Football",
    "7881": "%.",
    "7882": " walls",
    "7883": " minority",
    "7884": " Royal",
    "7885": "Co",
    "7886": " scenario",
    "7887": " participate",
    "7888": " containing",
    "7889": " acceler",
    "7890": " Academy",
    "7891": "ba",
    "7892": " losses",
    "7893": "engers",
    "7894": "97",
    "7895": "Those",
    "7896": " shortly",
    "7897": " Town",
    "7898": " PS",
    "7899": " 43",
    "7900": " corruption",
    "7901": "weet",
    "7902": "aron",
    "7903": " collapse",
    "7904": " Parliament",
    "7905": " unw",
    "7906": " overse",
    "7907": " flaw",
    "7908": " Anthony",
    "7909": ".\"[",
    "7910": " rose",
    "7911": " Ger",
    "7912": " sup",
    "7913": " bridge",
    "7914": " algorith",
    "7915": " Atlanta",
    "7916": " ?",
    "7917": "ounced",
    "7918": "emen",
    "7919": ":<|",
    "7920": " symptoms",
    "7921": " achieved",
    "7922": " Market",
    "7923": " Invest",
    "7924": " Conference",
    "7925": "ependent",
    "7926": "aning",
    "7927": " magn",
    "7928": " Int",
    "7929": " Development",
    "7930": "who",
    "7931": "this",
    "7932": "from",
    "7933": " Alabama",
    "7934": " recognition",
    "7935": " portion",
    "7936": " inev",
    "7937": " forever",
    "7938": " arrange",
    "7939": " Tenn",
    "7940": " Major",
    "7941": "print",
    "7942": "dem",
    "7943": "ancou",
    "7944": "abs",
    "7945": " movements",
    "7946": " gam",
    "7947": " Veg",
    "7948": "pread",
    "7949": "Before",
    "7950": " IT",
    "7951": "opher",
    "7952": " wages",
    "7953": " recru",
    "7954": "away",
    "7955": "oured",
    "7956": "itals",
    "7957": " restrictions",
    "7958": "profit",
    "7959": "interest",
    "7960": "idespread",
    "7961": "athered",
    "7962": " neutral",
    "7963": " journalist",
    "7964": "ni",
    "7965": " vary",
    "7966": " About",
    "7967": "86",
    "7968": " beliefs",
    "7969": " Stone",
    "7970": " SP",
    "7971": "yard",
    "7972": "))",
    "7973": " scholars",
    "7974": " laid",
    "7975": " lists",
    "7976": " convin",
    "7977": " upset",
    "7978": " Program",
    "7979": " Has",
    "7980": " sacr",
    "7981": " discrimination",
    "7982": " deliber",
    "7983": "aus",
    "7984": "400",
    "7985": " behaviour",
    "7986": " Win",
    "7987": " structures",
    "7988": " founded",
    "7989": "inking",
    "7990": " Bang",
    "7991": " interviews",
    "7992": " recording",
    "7993": "oenix",
    "7994": "ancouver",
    "7995": " reducing",
    "7996": " Oak",
    "7997": " rely",
    "7998": " nominee",
    "7999": "ogen",
    "8000": " Haj",
    "8001": " tip",
    "8002": " ren",
    "8003": " implementation",
    "8004": " banned",
    "8005": "lan",
    "8006": " ownership",
    "8007": " Music",
    "8008": "etime",
    "8009": " ethnic",
    "8010": "po",
    "8011": " Philipp",
    "8012": "lete",
    "8013": "inder",
    "8014": "53",
    "8015": " tackle",
    "8016": " stem",
    "8017": "icking",
    "8018": "Col",
    "8019": " Review",
    "8020": " Philadelphia",
    "8021": " interface",
    "8022": " eastern",
    "8023": " doors",
    "8024": "ye",
    "8025": " suggesting",
    "8026": " steel",
    "8027": " computers",
    "8028": "mann",
    "8029": "cr",
    "8030": " remem",
    "8031": " indicated",
    "8032": " Mid",
    "8033": "flix",
    "8034": " ocean",
    "8035": " Hom",
    "8036": "uction",
    "8037": " hired",
    "8038": " barely",
    "8039": "rative",
    "8040": " Str",
    "8041": "rous",
    "8042": "rolled",
    "8043": "omething",
    "8044": " drawing",
    "8045": "heast",
    "8046": "Star",
    "8047": " convicted",
    "8048": " Nob",
    "8049": " Lo",
    "8050": " ABC",
    "8051": "ashes",
    "8052": " trained",
    "8053": " intellectual",
    "8054": " formal",
    "8055": " progressive",
    "8056": " Hay",
    "8057": "ouch",
    "8058": "angel",
    "8059": " edition",
    "8060": " VR",
    "8061": "Ed",
    "8062": " destruction",
    "8063": " Po",
    "8064": " legend",
    "8065": " dinner",
    "8066": " Anton",
    "8067": " touchdown",
    "8068": " Emp",
    "8069": "asion",
    "8070": "arrass",
    "8071": " Rose",
    "8072": "osexual",
    "8073": " visible",
    "8074": " Saf",
    "8075": "HA",
    "8076": " shock",
    "8077": " cos",
    "8078": " Series",
    "8079": " reaching",
    "8080": " genetic",
    "8081": " Perhaps",
    "8082": "antic",
    "8083": " wheel",
    "8084": " establishment",
    "8085": " widespread",
    "8086": " lights",
    "8087": "lessly",
    "8088": " county",
    "8089": " strict",
    "8090": " Op",
    "8091": " Cur",
    "8092": "world",
    "8093": "gent",
    "8094": " corporations",
    "8095": " Full",
    "8096": " reprodu",
    "8097": " exem",
    "8098": "she",
    "8099": "front",
    "8100": " begun",
    "8101": " NSA",
    "8102": " Dead",
    "8103": "izon",
    "8104": "Me",
    "8105": " elev",
    "8106": " foundation",
    "8107": " contained",
    "8108": " propag",
    "8109": " fantasy",
    "8110": " bub",
    "8111": " Snow",
    "8112": " friendly",
    "8113": "maker",
    "8114": "aying",
    "8115": " versus",
    "8116": " philosophy",
    "8117": " Further",
    "8118": " farmers",
    "8119": " Greek",
    "8120": " framework",
    "8121": " Patrick",
    "8122": "ked",
    "8123": " corn",
    "8124": "lahoma",
    "8125": "Sm",
    "8126": "RI",
    "8127": "President",
    "8128": " thrown",
    "8129": " Judge",
    "8130": " Fund",
    "8131": " ju",
    "8132": " convinced",
    "8133": " Point",
    "8134": " Lind",
    "8135": "olen",
    "8136": " toler",
    "8137": " processing",
    "8138": " joining",
    "8139": " entering",
    "8140": " Radio",
    "8141": " Rus",
    "8142": " Rick",
    "8143": "xic",
    "8144": "Look",
    "8145": " util",
    "8146": " terr",
    "8147": " exposure",
    "8148": " devast",
    "8149": " awareness",
    "8150": "pload",
    "8151": " burd",
    "8152": "page",
    "8153": "leveland",
    "8154": " independence",
    "8155": " finger",
    "8156": " McCain",
    "8157": " Es",
    "8158": " Mayor",
    "8159": " rapidly",
    "8160": " disagree",
    "8161": " unemployment",
    "8162": " concrete",
    "8163": " challenging",
    "8164": " Ins",
    "8165": "sylv",
    "8166": " steal",
    "8167": " notion",
    "8168": " loyal",
    "8169": " genuine",
    "8170": " footage",
    "8171": "riers",
    "8172": "rical",
    "8173": "cription",
    "8174": " jury",
    "8175": " citizen",
    "8176": " cha",
    "8177": " Albert",
    "8178": "amsung",
    "8179": " transgender",
    "8180": " minds",
    "8181": " Mir",
    "8182": "::",
    "8183": " Three",
    "8184": " 41",
    "8185": "89",
    "8186": " robot",
    "8187": " rook",
    "8188": " moon",
    "8189": " deputy",
    "8190": "making",
    "8191": "ho",
    "8192": "Under",
    "8193": "2016",
    "8194": " unclear",
    "8195": " racist",
    "8196": " Ministry",
    "8197": " Little",
    "8198": "51",
    "8199": " resource",
    "8200": " Pack",
    "8201": " smoke",
    "8202": " invited",
    "8203": " recognized",
    "8204": " invent",
    "8205": "76",
    "8206": " initiative",
    "8207": "found",
    "8208": " skept",
    "8209": " firms",
    "8210": "power",
    "8211": "oding",
    "8212": "erts",
    "8213": "bro",
    "8214": " hitting",
    "8215": " Medical",
    "8216": " shit",
    "8217": "About",
    "8218": " tickets",
    "8219": " fiction",
    "8220": " carefully",
    "8221": " Tour",
    "8222": " Centre",
    "8223": "esh",
    "8224": " technique",
    "8225": " tor",
    "8226": "repre",
    "8227": " recover",
    "8228": "TP",
    "8229": " vital",
    "8230": " proven",
    "8231": " hardly",
    "8232": " IM",
    "8233": " welf",
    "8234": " retired",
    "8235": " mining",
    "8236": " Note",
    "8237": " exclusive",
    "8238": " Education",
    "8239": " Administration",
    "8240": "pa",
    "8241": "obs",
    "8242": " outs",
    "8243": " alien",
    "8244": " Hell",
    "8245": "eman",
    "8246": " comprehens",
    "8247": " attached",
    "8248": "rec",
    "8249": "Sub",
    "8250": "74",
    "8251": " prosec",
    "8252": " episodes",
    "8253": "udes",
    "8254": " stadium",
    "8255": " democratic",
    "8256": " Scient",
    "8257": " Ale",
    "8258": " substantial",
    "8259": " ships",
    "8260": "alling",
    "8261": " photograp",
    "8262": " logic",
    "8263": " anybody",
    "8264": " 52",
    "8265": "sylvania",
    "8266": "iability",
    "8267": "door",
    "8268": " shr",
    "8269": " discovery",
    "8270": " collective",
    "8271": " 1998",
    "8272": "ã¼",
    "8273": "Ke",
    "8274": " welfare",
    "8275": " pig",
    "8276": " equally",
    "8277": "reprene",
    "8278": "ources",
    "8279": "Note",
    "8280": " speaks",
    "8281": " elig",
    "8282": " colors",
    "8283": " association",
    "8284": " ESP",
    "8285": " CA",
    "8286": " receiver",
    "8287": " inflation",
    "8288": " ho",
    "8289": " Santa",
    "8290": " ultimate",
    "8291": " intervention",
    "8292": " cogn",
    "8293": "iley",
    "8294": " Gov",
    "8295": "usted",
    "8296": " subsequent",
    "8297": " producer",
    "8298": " borrow",
    "8299": " featuring",
    "8300": " Marc",
    "8301": " AD",
    "8302": "umes",
    "8303": "ester",
    "8304": " scandal",
    "8305": " premium",
    "8306": " handful",
    "8307": " Kingdom",
    "8308": " Baltimore",
    "8309": "inois",
    "8310": " regulation",
    "8311": " Season",
    "8312": " Ret",
    "8313": " guarante",
    "8314": " expanded",
    "8315": " dance",
    "8316": " campaigns",
    "8317": "ria",
    "8318": " wars",
    "8319": " humanity",
    "8320": "owing",
    "8321": " trem",
    "8322": " prisoners",
    "8323": " complaints",
    "8324": " 1960",
    "8325": "Ðº",
    "8326": "oval",
    "8327": " synt",
    "8328": " roof",
    "8329": " improvements",
    "8330": " fallen",
    "8331": " asks",
    "8332": "cific",
    "8333": " papers",
    "8334": " hide",
    "8335": "aret",
    "8336": " reven",
    "8337": " clothes",
    "8338": " Key",
    "8339": " Bh",
    "8340": " plate",
    "8341": " incorpor",
    "8342": " diversity",
    "8343": " anger",
    "8344": " Arm",
    "8345": "uma",
    "8346": "intendo",
    "8347": " soph",
    "8348": " HD",
    "8349": "uce",
    "8350": "oga",
    "8351": "eneration",
    "8352": "appy",
    "8353": " prepare",
    "8354": " Ott",
    "8355": " Hor",
    "8356": " hook",
    "8357": " exceed",
    "8358": " disturb",
    "8359": " Columbia",
    "8360": "imm",
    "8361": "etts",
    "8362": " sensitive",
    "8363": " reviews",
    "8364": " fears",
    "8365": " Navy",
    "8366": " suspected",
    "8367": " km",
    "8368": " brothers",
    "8369": "\",\"",
    "8370": " advocates",
    "8371": "uted",
    "8372": " smooth",
    "8373": " purchased",
    "8374": " entertainment",
    "8375": " embarrass",
    "8376": " Vancouver",
    "8377": " Portland",
    "8378": "umer",
    "8379": "ropri",
    "8380": " exception",
    "8381": " OK",
    "8382": "mate",
    "8383": "iano",
    "8384": "Script",
    "8385": "Related",
    "8386": " respectively",
    "8387": " extend",
    "8388": " controversy",
    "8389": "rators",
    "8390": " Denver",
    "8391": "!)",
    "8392": " crop",
    "8393": " Sat",
    "8394": " NAT",
    "8395": "uper",
    "8396": "then",
    "8397": " constitutional",
    "8398": " ON",
    "8399": "ommod",
    "8400": "jo",
    "8401": " upgrade",
    "8402": " tone",
    "8403": " producing",
    "8404": "Russ",
    "8405": " viewed",
    "8406": " testim",
    "8407": " incent",
    "8408": " gear",
    "8409": " fulf",
    "8410": " contribute",
    "8411": "achus",
    "8412": " serves",
    "8413": " overwhelming",
    "8414": " homeless",
    "8415": " Latin",
    "8416": "iti",
    "8417": " attacking",
    "8418": "iversary",
    "8419": "ca",
    "8420": " shame",
    "8421": " involvement",
    "8422": " fab",
    "8423": " Luc",
    "8424": " Jay",
    "8425": " Hind",
    "8426": " scores",
    "8427": " unex",
    "8428": "ultural",
    "8429": "des",
    "8430": "azz",
    "8431": " salary",
    "8432": " representative",
    "8433": " cannabis",
    "8434": " Next",
    "8435": " Environment",
    "8436": " Dig",
    "8437": "amac",
    "8438": " dynamic",
    "8439": " Action",
    "8440": " tail",
    "8441": " peak",
    "8442": " grounds",
    "8443": "Ù",
    "8444": "itting",
    "8445": " dramatic",
    "8446": " Golden",
    "8447": " Did",
    "8448": "++",
    "8449": " throwing",
    "8450": "wered",
    "8451": "GO",
    "8452": " description",
    "8453": "mad",
    "8454": " perpet",
    "8455": " counts",
    "8456": " offices",
    "8457": " involves",
    "8458": " Report",
    "8459": "Will",
    "8460": " Howard",
    "8461": " electronic",
    "8462": " bureau",
    "8463": " Pent",
    "8464": " referring",
    "8465": " rif",
    "8466": " History",
    "8467": "Se",
    "8468": "RL",
    "8469": " Such",
    "8470": "worth",
    "8471": " depression",
    "8472": " Never",
    "8473": "ictions",
    "8474": " puzz",
    "8475": " hang",
    "8476": " external",
    "8477": " disrupt",
    "8478": " brill",
    "8479": " attitude",
    "8480": "vision",
    "8481": "ogs",
    "8482": " normally",
    "8483": " listening",
    "8484": " Disney",
    "8485": " stayed",
    "8486": " recommended",
    "8487": " monthly",
    "8488": " medicine",
    "8489": " investigating",
    "8490": "mat",
    "8491": "geon",
    "8492": "annels",
    "8493": " ignore",
    "8494": " frag",
    "8495": " 1996",
    "8496": "</",
    "8497": " connections",
    "8498": " accus",
    "8499": "phones",
    "8500": "dney",
    "8501": " enormous",
    "8502": " astron",
    "8503": " rational",
    "8504": " publication",
    "8505": " Pennsylvania",
    "8506": " estimate",
    "8507": " FA",
    "8508": " Arabia",
    "8509": "uits",
    "8510": "eria",
    "8511": " efficiency",
    "8512": " Square",
    "8513": " Cleveland",
    "8514": " Ø",
    "8515": "achusetts",
    "8516": " languages",
    "8517": " bail",
    "8518": "ira",
    "8519": " virtually",
    "8520": " statistics",
    "8521": " raw",
    "8522": " Revolution",
    "8523": " Ly",
    "8524": " Code",
    "8525": "html",
    "8526": "acco",
    "8527": "PP",
    "8528": " quote",
    "8529": " licens",
    "8530": " abst",
    "8531": " stupid",
    "8532": " samples",
    "8533": " inject",
    "8534": " Queen",
    "8535": " Harris",
    "8536": " sugar",
    "8537": " menu",
    "8538": " casual",
    "8539": " List",
    "8540": " Jac",
    "8541": "ologists",
    "8542": "85",
    "8543": " march",
    "8544": "core",
    "8545": " suffer",
    "8546": " liquid",
    "8547": " amid",
    "8548": " Walker",
    "8549": " conce",
    "8550": " affairs",
    "8551": " Roy",
    "8552": " Prote",
    "8553": " Ext",
    "8554": " princip",
    "8555": "iry",
    "8556": " Bad",
    "8557": "ito",
    "8558": "fare",
    "8559": "SI",
    "8560": " screens",
    "8561": " personality",
    "8562": "case",
    "8563": "SD",
    "8564": " yellow",
    "8565": " temperatures",
    "8566": " lowest",
    "8567": " holiday",
    "8568": " hint",
    "8569": "ndum",
    "8570": "itionally",
    "8571": "hour",
    "8572": "ds",
    "8573": "annon",
    "8574": " salt",
    "8575": " ranked",
    "8576": " authent",
    "8577": " Allen",
    "8578": "olph",
    "8579": "iverpool",
    "8580": "'.",
    "8581": " remarks",
    "8582": " accommod",
    "8583": " Brother",
    "8584": " 1997",
    "8585": "senal",
    "8586": "amacare",
    "8587": "acon",
    "8588": "Black",
    "8589": " origin",
    "8590": " ingred",
    "8591": "uh",
    "8592": "rapped",
    "8593": " jur",
    "8594": " Rand",
    "8595": "ã®",
    "8596": "mary",
    "8597": " flash",
    "8598": " Oklahoma",
    "8599": " Museum",
    "8600": " surf",
    "8601": " presum",
    "8602": " plain",
    "8603": " implemented",
    "8604": " iP",
    "8605": " Professor",
    "8606": "CT",
    "8607": " visitors",
    "8608": " unions",
    "8609": " sorry",
    "8610": " rom",
    "8611": " luck",
    "8612": " fiscal",
    "8613": " ESPN",
    "8614": " rural",
    "8615": " pump",
    "8616": " heading",
    "8617": "unes",
    "8618": "igrant",
    "8619": "Che",
    "8620": " transportation",
    "8621": " missile",
    "8622": " Pit",
    "8623": " roads",
    "8624": " overt",
    "8625": " AND",
    "8626": " Fed",
    "8627": "agh",
    "8628": "Where",
    "8629": " trave",
    "8630": " preced",
    "8631": " platforms",
    "8632": " chapter",
    "8633": " Head",
    "8634": " Ali",
    "8635": "yo",
    "8636": "essel",
    "8637": " gathered",
    "8638": " Family",
    "8639": "uties",
    "8640": "arms",
    "8641": "Both",
    "8642": "69",
    "8643": " terrorists",
    "8644": " strategic",
    "8645": " legitimate",
    "8646": " encouraged",
    "8647": " attempting",
    "8648": " 53",
    "8649": "abet",
    "8650": "GE",
    "8651": " fro",
    "8652": " console",
    "8653": "lad",
    "8654": "cut",
    "8655": " Mean",
    "8656": "ð",
    "8657": " waves",
    "8658": " shoulder",
    "8659": " seemingly",
    "8660": " grav",
    "8661": " boat",
    "8662": " arr",
    "8663": " Ref",
    "8664": " Ontario",
    "8665": " Mah",
    "8666": " III",
    "8667": "bi",
    "8668": "agic",
    "8669": "News",
    "8670": "FF",
    "8671": " sty",
    "8672": " sevent",
    "8673": " investigate",
    "8674": " Trade",
    "8675": " races",
    "8676": " da",
    "8677": " covers",
    "8678": "Her",
    "8679": ".-",
    "8680": " obtain",
    "8681": " drew",
    "8682": "king",
    "8683": " tea",
    "8684": " closing",
    "8685": " clim",
    "8686": "Ä",
    "8687": "thon",
    "8688": "abeth",
    "8689": " celeb",
    "8690": " Cre",
    "8691": " universities",
    "8692": " ballot",
    "8693": "cover",
    "8694": " resign",
    "8695": " legs",
    "8696": " Community",
    "8697": " practical",
    "8698": " improvement",
    "8699": " Turkish",
    "8700": "ystem",
    "8701": "87",
    "8702": "800",
    "8703": "helsea",
    "8704": " ham",
    "8705": " branch",
    "8706": "rator",
    "8707": "pton",
    "8708": " appreciate",
    "8709": "ped",
    "8710": "including",
    "8711": "don",
    "8712": " tasks",
    "8713": " depos",
    "8714": " conspiracy",
    "8715": " careful",
    "8716": " Buff",
    "8717": " clot",
    "8718": " Illinois",
    "8719": " foss",
    "8720": " alert",
    "8721": " Sept",
    "8722": "ì",
    "8723": " tweeted",
    "8724": " mo",
    "8725": " guarantee",
    "8726": " handed",
    "8727": " Master",
    "8728": " Ba",
    "8729": " tomorrow",
    "8730": " providers",
    "8731": " Stat",
    "8732": "riors",
    "8733": "claim",
    "8734": " firing",
    "8735": " Hard",
    "8736": " Chair",
    "8737": " depends",
    "8738": " consistently",
    "8739": " Brew",
    "8740": "iences",
    "8741": "bn",
    "8742": " settlement",
    "8743": " conversations",
    "8744": " NC",
    "8745": " rhet",
    "8746": " discussions",
    "8747": " disorder",
    "8748": " Ren",
    "8749": " Massachusetts",
    "8750": " Battle",
    "8751": " drama",
    "8752": " revel",
    "8753": " Intelligence",
    "8754": "aka",
    "8755": "asted",
    "8756": " ignored",
    "8757": " horror",
    "8758": " compe",
    "8759": " Without",
    "8760": " Cooper",
    "8761": " mistakes",
    "8762": "ported",
    "8763": "aval",
    "8764": "Who",
    "8765": " servers",
    "8766": " register",
    "8767": " portray",
    "8768": "eding",
    "8769": " suspended",
    "8770": " incidents",
    "8771": " distract",
    "8772": " Guardian",
    "8773": " Core",
    "8774": "plete",
    "8775": "HT",
    "8776": " sin",
    "8777": " reliable",
    "8778": " phrase",
    "8779": " overs",
    "8780": " extraord",
    "8781": " entitled",
    "8782": " Netflix",
    "8783": " Bridge",
    "8784": "iere",
    "8785": " opinions",
    "8786": " Freedom",
    "8787": " spaces",
    "8788": " marks",
    "8789": " dub",
    "8790": " Use",
    "8791": " Information",
    "8792": " replied",
    "8793": " Ra",
    "8794": " Check",
    "8795": "Art",
    "8796": " threw",
    "8797": " displ",
    "8798": " demonstrated",
    "8799": " Hajime",
    "8800": "Ã±",
    "8801": "zed",
    "8802": "rets",
    "8803": "ivals",
    "8804": " passengers",
    "8805": "Ref",
    "8806": " captain",
    "8807": "iban",
    "8808": "asty",
    "8809": " reads",
    "8810": " mountain",
    "8811": " deficit",
    "8812": " Indeed",
    "8813": "SC",
    "8814": " layer",
    "8815": " grid",
    "8816": " activist",
    "8817": " Ur",
    "8818": " Matthew",
    "8819": "ntil",
    "8820": "ecut",
    "8821": " gains",
    "8822": "ourse",
    "8823": " inequ",
    "8824": " UFC",
    "8825": "ammed",
    "8826": " mun",
    "8827": " improving",
    "8828": " Technology",
    "8829": " 51",
    "8830": "ificial",
    "8831": " hockey",
    "8832": " acquired",
    "8833": " NOT",
    "8834": "scale",
    "8835": "##",
    "8836": " twenty",
    "8837": " tries",
    "8838": " landscape",
    "8839": " Unfortunately",
    "8840": " noting",
    "8841": " judges",
    "8842": " Cameron",
    "8843": "aping",
    "8844": " Tri",
    "8845": " universal",
    "8846": " absence",
    "8847": " 1995",
    "8848": "eries",
    "8849": "\")",
    "8850": " mad",
    "8851": " insisted",
    "8852": " contributions",
    "8853": "ounce",
    "8854": " Which",
    "8855": " Gun",
    "8856": "inch",
    "8857": " objective",
    "8858": " Kennedy",
    "8859": "ompson",
    "8860": " sequence",
    "8861": " ranks",
    "8862": " joke",
    "8863": " Gulf",
    "8864": " Bernie",
    "8865": "vard",
    "8866": "Please",
    "8867": " breaks",
    "8868": " Set",
    "8869": "uten",
    "8870": "only",
    "8871": "isp",
    "8872": "72",
    "8873": " restaurants",
    "8874": " prompt",
    "8875": " predicted",
    "8876": " literature",
    "8877": " failing",
    "8878": " exch",
    "8879": " lucky",
    "8880": " commonly",
    "8881": " WW",
    "8882": " Make",
    "8883": " Kansas",
    "8884": " Ippo",
    "8885": " na",
    "8886": " hung",
    "8887": " Ice",
    "8888": " Conservative",
    "8889": "ihad",
    "8890": "ieties",
    "8891": " usage",
    "8892": " legacy",
    "8893": " ax",
    "8894": " Nintendo",
    "8895": "ington",
    "8896": "Ass",
    "8897": " investigators",
    "8898": "hop",
    "8899": " saving",
    "8900": " highlights",
    "8901": " covering",
    "8902": " Death",
    "8903": "iate",
    "8904": " spokesperson",
    "8905": " protocol",
    "8906": " equality",
    "8907": " dismissed",
    "8908": "plus",
    "8909": "apolis",
    "8910": " virus",
    "8911": " referendum",
    "8912": " Vegas",
    "8913": " Share",
    "8914": " Niger",
    "8915": " fighter",
    "8916": "ijing",
    "8917": "high",
    "8918": " mice",
    "8919": " criticized",
    "8920": " insist",
    "8921": " Phoenix",
    "8922": "keep",
    "8923": "akh",
    "8924": " settings",
    "8925": " racism",
    "8926": " documentary",
    "8927": " coaches",
    "8928": "https",
    "8929": "Sen",
    "8930": " porn",
    "8931": " horse",
    "8932": " Getty",
    "8933": " %",
    "8934": "73",
    "8935": " violation",
    "8936": " ratings",
    "8937": " fantastic",
    "8938": " divided",
    "8939": "VE",
    "8940": " waters",
    "8941": " centers",
    "8942": " Mexican",
    "8943": " Kat",
    "8944": "type",
    "8945": "eters",
    "8946": " lands",
    "8947": " falls",
    "8948": " earthqu",
    "8949": " comedy",
    "8950": " channels",
    "8951": " Broad",
    "8952": " Bible",
    "8953": " Ball",
    "8954": "icism",
    "8955": " Expl",
    "8956": " voter",
    "8957": " silver",
    "8958": " milk",
    "8959": " acknowledged",
    "8960": " Jenn",
    "8961": "ught",
    "8962": "79",
    "8963": " ratio",
    "8964": " neck",
    "8965": " euro",
    "8966": " Sydney",
    "8967": " None",
    "8968": " tracking",
    "8969": " partnership",
    "8970": " approached",
    "8971": " Pres",
    "8972": "lla",
    "8973": "David",
    "8974": "600",
    "8975": " civilians",
    "8976": " buff",
    "8977": " actors",
    "8978": " responses",
    "8979": " profits",
    "8980": " performing",
    "8981": " naturally",
    "8982": " assigned",
    "8983": " Pass",
    "8984": " factory",
    "8985": " Patri",
    "8986": " Eag",
    "8987": " Cook",
    "8988": " 1994",
    "8989": " petition",
    "8990": " obs",
    "8991": " instrument",
    "8992": " employed",
    "8993": " capabilities",
    "8994": " Austin",
    "8995": "heim",
    "8996": " monitor",
    "8997": " ec",
    "8998": "was",
    "8999": "abe",
    "9000": " visiting",
    "9001": " trials",
    "9002": " transactions",
    "9003": " hoped",
    "9004": " Vietnam",
    "9005": " Hospital",
    "9006": "Fl",
    "9007": " studied",
    "9008": " Roberts",
    "9009": " checks",
    "9010": " abandoned",
    "9011": " (â",
    "9012": " forest",
    "9013": " adventure",
    "9014": " Associated",
    "9015": "argo",
    "9016": " funded",
    "9017": " entr",
    "9018": " Xbox",
    "9019": " Ap",
    "9020": "Still",
    "9021": " locked",
    "9022": " Pop",
    "9023": "Ã³n",
    "9024": "ptions",
    "9025": "RS",
    "9026": " handling",
    "9027": " entreprene",
    "9028": " Anderson",
    "9029": "izabeth",
    "9030": "enh",
    "9031": " swing",
    "9032": " Samsung",
    "9033": " Prop",
    "9034": " Las",
    "9035": "ocument",
    "9036": "VP",
    "9037": " smell",
    "9038": " addressed",
    "9039": "backs",
    "9040": "aeda",
    "9041": " joy",
    "9042": " Start",
    "9043": "\".[",
    "9044": " wrest",
    "9045": " jun",
    "9046": " cust",
    "9047": " Beck",
    "9048": " â",
    "9049": " tactics",
    "9050": " supplies",
    "9051": " ->",
    "9052": "pled",
    "9053": " permit",
    "9054": " Vill",
    "9055": " Atlantic",
    "9056": "zing",
    "9057": "ordon",
    "9058": "gus",
    "9059": " scientist",
    "9060": " inner",
    "9061": " cow",
    "9062": " Wik",
    "9063": " DO",
    "9064": " Chron",
    "9065": "tel",
    "9066": " stake",
    "9067": " shout",
    "9068": " ramp",
    "9069": " pref",
    "9070": " measured",
    "9071": " innovation",
    "9072": " ×",
    "9073": " letting",
    "9074": " Sony",
    "9075": " stone",
    "9076": " promises",
    "9077": "irts",
    "9078": "dit",
    "9079": " whenever",
    "9080": " stolen",
    "9081": " playoffs",
    "9082": " monitoring",
    "9083": " diverse",
    "9084": " Spring",
    "9085": "ctr",
    "9086": " symp",
    "9087": " rookie",
    "9088": " ordinary",
    "9089": " midfield",
    "9090": " fruit",
    "9091": " Data",
    "9092": "Back",
    "9093": " musical",
    "9094": " subscrib",
    "9095": " replacement",
    "9096": " reader",
    "9097": " hip",
    "9098": " assessment",
    "9099": " Kar",
    "9100": "Å",
    "9101": "eland",
    "9102": " senator",
    "9103": " butt",
    "9104": " Bureau",
    "9105": "ynch",
    "9106": " mathem",
    "9107": " Warren",
    "9108": "bered",
    "9109": "Post",
    "9110": " nomination",
    "9111": " sorts",
    "9112": " Scottish",
    "9113": " Photos",
    "9114": " Mississ",
    "9115": "aki",
    "9116": "Your",
    "9117": "Cons",
    "9118": " spokeswoman",
    "9119": " secondary",
    "9120": " Acc",
    "9121": "mans",
    "9122": "Part",
    "9123": " ministry",
    "9124": " Ha",
    "9125": "trans",
    "9126": " warn",
    "9127": " theat",
    "9128": " Yeah",
    "9129": " Marsh",
    "9130": " Iraqi",
    "9131": " lets",
    "9132": " Obamacare",
    "9133": " Friend",
    "9134": "AF",
    "9135": "63",
    "9136": "they",
    "9137": " forcing",
    "9138": " accomplish",
    "9139": " Bron",
    "9140": "organ",
    "9141": " assign",
    "9142": " argues",
    "9143": " Abb",
    "9144": "jan",
    "9145": "inction",
    "9146": "comes",
    "9147": " distributed",
    "9148": " Taliban",
    "9149": " Moon",
    "9150": " Age",
    "9151": "shire",
    "9152": " representing",
    "9153": " programme",
    "9154": " introduce",
    "9155": " differently",
    "9156": " Tro",
    "9157": " Stadium",
    "9158": " â¬",
    "9159": " warrant",
    "9160": " tips",
    "9161": " dates",
    "9162": " Wolf",
    "9163": " Ho",
    "9164": "itage",
    "9165": "ateral",
    "9166": "asting",
    "9167": "Though",
    "9168": " quoted",
    "9169": " Ult",
    "9170": " Az",
    "9171": "orous",
    "9172": "dri",
    "9173": "crib",
    "9174": "61",
    "9175": " maintained",
    "9176": " drove",
    "9177": " conventional",
    "9178": " bars",
    "9179": " auto",
    "9180": " manifest",
    "9181": "xit",
    "9182": "plate",
    "9183": "encing",
    "9184": " temporary",
    "9185": " congressional",
    "9186": " blocked",
    "9187": " McK",
    "9188": "made",
    "9189": "ila",
    "9190": " tiss",
    "9191": " noise",
    "9192": " maps",
    "9193": " guitar",
    "9194": " deadly",
    "9195": " Carter",
    "9196": "pack",
    "9197": "arity",
    "9198": " arrive",
    "9199": " Gaza",
    "9200": "ï¿½",
    "9201": "quest",
    "9202": "ceptions",
    "9203": " importantly",
    "9204": " barrel",
    "9205": " Jonathan",
    "9206": "ounding",
    "9207": " cul",
    "9208": " arbit",
    "9209": " spoken",
    "9210": " soccer",
    "9211": " silence",
    "9212": " politically",
    "9213": " copies",
    "9214": " Sarah",
    "9215": " weigh",
    "9216": " smoking",
    "9217": " populations",
    "9218": " loans",
    "9219": " athletes",
    "9220": " surely",
    "9221": " revers",
    "9222": " Justin",
    "9223": "section",
    "9224": "Pre",
    "9225": " urged",
    "9226": " tonight",
    "9227": " introduction",
    "9228": " consent",
    "9229": " Bon",
    "9230": "umin",
    "9231": " swim",
    "9232": " lobby",
    "9233": " hyper",
    "9234": " drone",
    "9235": "step",
    "9236": "ibl",
    "9237": " trigger",
    "9238": " tie",
    "9239": " submitted",
    "9240": " shopping",
    "9241": " Does",
    "9242": "iy",
    "9243": " lying",
    "9244": " bonus",
    "9245": "jud",
    "9246": " sear",
    "9247": " relax",
    "9248": " guest",
    "9249": " Was",
    "9250": " NATO",
    "9251": " Liverpool",
    "9252": " Der",
    "9253": "eh",
    "9254": "assador",
    "9255": "Pr",
    "9256": " iOS",
    "9257": " headquarters",
    "9258": " experiments",
    "9259": "Facebook",
    "9260": " wealthy",
    "9261": " streaming",
    "9262": " healthcare",
    "9263": " focusing",
    "9264": "2015",
    "9265": " Connect",
    "9266": " Cow",
    "9267": "Ð¼",
    "9268": "rient",
    "9269": "Yet",
    "9270": "AND",
    "9271": " threatening",
    "9272": " stages",
    "9273": " paralle",
    "9274": " festival",
    "9275": " Utah",
    "9276": " Sus",
    "9277": " Control",
    "9278": " Ast",
    "9279": "oded",
    "9280": " semi",
    "9281": " Cost",
    "9282": "otype",
    "9283": "essee",
    "9284": " prepar",
    "9285": " fur",
    "9286": " celebrate",
    "9287": " Plus",
    "9288": " CH",
    "9289": "orable",
    "9290": " weekly",
    "9291": " odds",
    "9292": " Sometimes",
    "9293": " Marvel",
    "9294": "yer",
    "9295": " submit",
    "9296": " popularity",
    "9297": " Girl",
    "9298": " Bra",
    "9299": "ippi",
    "9300": "ective",
    "9301": "SE",
    "9302": " windows",
    "9303": " protecting",
    "9304": " circle",
    "9305": " absor",
    "9306": " Creat",
    "9307": "fund",
    "9308": "62",
    "9309": " tape",
    "9310": " knee",
    "9311": " beauty",
    "9312": " PA",
    "9313": " Dream",
    "9314": " Corpor",
    "9315": "owe",
    "9316": "mers",
    "9317": "RC",
    "9318": " hydro",
    "9319": " clock",
    "9320": " Trib",
    "9321": " Dave",
    "9322": " appearances",
    "9323": " alter",
    "9324": " Jam",
    "9325": "rooms",
    "9326": "ahu",
    "9327": " spiritual",
    "9328": " pursue",
    "9329": " helpful",
    "9330": " brilliant",
    "9331": " Greece",
    "9332": "vernment",
    "9333": "theless",
    "9334": "olds",
    "9335": " wider",
    "9336": " outrage",
    "9337": " innocent",
    "9338": " guards",
    "9339": " creatures",
    "9340": " Kong",
    "9341": "atar",
    "9342": " proposals",
    "9343": " newsletter",
    "9344": " diseases",
    "9345": " deem",
    "9346": " Mill",
    "9347": " MORE",
    "9348": " Beijing",
    "9349": " Ark",
    "9350": " 2020",
    "9351": "aware",
    "9352": " smartphone",
    "9353": " render",
    "9354": " conservatives",
    "9355": " compare",
    "9356": " Som",
[...]
